[PAD]	0
[UNK]	0
[BOS]	0
[EOS]	0
▁,	-0
▁我	-1
▁的	-2
▁你	-3
▁了	-4
▁不	-5
▁。	-6
▁!	-7
20	-8
..	-9
▁一	-10
▁是	-11
▁好	-12
媛媛	-13
可以	-14
▁?	-15
哈哈	-16
公司	-17
▁这	-18
▁啊	-19
▁就	-20
▁没	-21
中国	-22
▁在	-23
▁有	-24
发展	-25
一个	-26
企业	-27
工作	-28
▁还	-29
我们	-30
什么	-31
00	-32
▁也	-33
▁都	-34
自己	-35
▁看	-36
产品	-37
媛媛媛媛	-38
技术	-39
201	-40
▁那	-41
▁哈哈	-42
进行	-43
...	-44
研究	-45
管理	-46
市场	-47
▁...	-48
服务	-49
国家	-50
▁说	-51
▁去	-52
问题	-53
生产	-54
专业	-55
没有	-56
使用	-57
▁吧	-58
▁要	-59
10	-60
▁很	-61
项目	-62
时间	-63
▁大	-64
行业	-65
▁~	-66
需要	-67
教育	-68
▁吃	-69
设计	-70
现在	-71
如果	-72
生活	-73
大学	-74
通过	-75
▁人	-76
▁真	-77
▁吗	-78
▁想	-79
建设	-80
已经	-81
知道	-82
世界	-83
因为	-84
环境	-85
▁回	-86
▁1	-87
系统	-88
建筑	-89
方面	-90
可能	-91
同时	-92
学生	-93
设备	-94
他们	-95
时候	-96
▁对	-97
主要	-98
中心	-99
提供	-100
怎么	-101
活动	-102
▁什么	-103
增长	-104
▁小	-105
工程	-106
经济	-107
保护	-108
安全	-109
媛媛媛媛媛媛媛媛	-110
这个	-111
产业	-112
▁上	-113
重要	-114
学校	-115
▁多	-116
具有	-117
城市	-118
是一	-119
开始	-120
社会	-121
信息	-122
成为	-123
美国	-124
好的	-125
投资	-126
国际	-127
第一	-128
以及	-129
选择	-130
相关	-131
▁我们	-132
所以	-133
游戏	-134
。”	-135
不同	-136
创新	-137
数据	-138
材料	-139
能力	-140
其中	-141
很多	-142
▁下	-143
应用	-144
但是	-145
▁会	-146
生态	-147
作为	-148
喜欢	-149
▁呢	-150
目前	-151
这些	-152
▁可以	-153
▁为	-154
19	-155
非常	-156
▁哈哈哈	-157
提高	-158
就是	-159
▁来	-160
大的	-161
开发	-162
一些	-163
要求	-164
▁他	-165
了解	-166
平台	-167
影响	-168
的人	-169
网站	-170
能够	-171
方式	-172
质量	-173
品牌	-174
根据	-175
▁没有	-176
▁最	-177
不是	-178
电影	-179
艺术	-180
”,	-181
情况	-182
中的	-183
资源	-184
▁过	-185
学习	-186
网络	-187
表示	-188
不断	-189
人员	-190
健康	-191
其他	-192
科学	-193
部分	-194
▁今	-195
▁嗯	-196
er	-197
▁太	-198
结构	-199
——	-200
▁啦	-201
大家	-202
▁就是	-203
200	-204
▁怎么	-205
▁只	-206
包括	-207
▁一个	-208
▁可	-209
▁呀	-210
地区	-211
文化	-212
标准	-213
▁给	-214
也是	-215
▁知道	-216
▁到	-217
▁老	-218
比较	-219
合作	-220
用户	-221
%,	-222
亿元	-223
处理	-224
朋友	-225
的一	-226
能源	-227
▁(	-228
科技	-229
人的	-230
对于	-231
12	-232
▁“	-233
基本	-234
▁现在	-235
▁本	-236
有限	-237
全国	-238
内容	-239
▁自己	-240
▁～	-241
以上	-242
获得	-243
▁不是	-244
北京	-245
自己的	-246
11	-247
▁2	-248
▁么	-249
过程	-250
需求	-251
),	-252
▁出	-253
学院	-254
我国	-255
的是	-256
实现	-257
消费	-258
显示	-259
领域	-260
▁3	-261
▁和	-262
价格	-263
孩子	-264
觉得	-265
一定	-266
年的	-267
提升	-268
机构	-269
▁哪	-270
on	-271
因此	-272
必须	-273
未来	-274
基础	-275
希望	-276
这样	-277
随着	-278
到了	-279
单位	-280
发生	-281
▁快	-282
客户	-283
工业	-284
增加	-285
所有	-286
自动	-287
▁喜欢	-288
15	-289
an	-290
▁加	-291
▁哦	-292
▁感	-293
地方	-294
由于	-295
▁这个	-296
各种	-297
智能	-298
自然	-299
个人	-300
100	-301
▁做	-302
▁新	-303
▁早	-304
出现	-305
汽车	-306
癜风	-307
这种	-308
白癜风	-309
▁以	-310
▁打	-311
计划	-312
起来	-313
集团	-314
in	-315
▁开	-316
▁还是	-317
▁啥	-318
采用	-319
▁能	-320
发现	-321
▁又	-322
传统	-323
功能	-324
广告	-325
注意	-326
都是	-327
2020	-328
30	-329
应该	-330
▁这么	-331
全球	-332
容易	-333
▁真的	-334
交易	-335
政府	-336
水平	-337
1.	-338
▁天	-339
体育	-340
关系	-341
如何	-342
控制	-343
之间	-344
进入	-345
50	-346
一步	-347
手机	-348
▁找	-349
不能	-350
特别	-351
▁别	-352
▁睡	-353
电子	-354
高速	-355
%。	-356
这一	-357
16	-358
▁中	-359
完成	-360
”。	-361
国内	-362
性能	-363
效果	-364
治疗	-365
组织	-366
结合	-367
负责	-368
媛媛媛媛媛媛媛媛媛媛媛媛媛媛媛媛	-369
▁等	-370
解决	-371
,“	-372
21	-373
分析	-374
实施	-375
新的	-376
方法	-377
第二	-378
超过	-379
销售	-380
电视	-381
▁晚	-382
之一	-383
▁今天	-384
业务	-385
关注	-386
利用	-387
发布	-388
▁你们	-389
▁谢	-390
作用	-391
医院	-392
两个	-393
而且	-394
有限公司	-395
介绍	-396
体系	-397
部门	-398
▁觉得	-399
at	-400
▁女	-401
▁爱	-402
然后	-403
时代	-404
经营	-405
▁买	-406
▁把	-407
更多	-408
认为	-409
达到	-410
0.	-411
▁得	-412
....	-413
关键	-414
带来	-415
责任	-416
▁再	-417
▁当	-418
代表	-419
现代	-420
继续	-421
:“	-422
为了	-423
作品	-424
报告	-425
生物	-426
规模	-427
ar	-428
▁心	-429
一起	-430
交流	-431
保持	-432
许多	-433
课程	-434
13	-435
17	-436
▁明	-437
实际	-438
直接	-439
规定	-440
的发展	-441
)。	-442
了一	-443
拥有	-444
施工	-445
旅游	-446
综合	-447
2019	-448
不会	-449
有效	-450
越来	-451
以来	-452
基金	-453
存在	-454
金融	-455
▁谢谢	-456
越来越	-457
公路	-458
支持	-459
更加	-460
重点	-461
14	-462
▁美	-463
医疗	-464
团队	-465
或者	-466
购买	-467
还是	-468
▁时候	-469
生态保护	-470
▁生	-471
之后	-472
其实	-473
▁被	-474
交通	-475
范围	-476
那么	-477
--	-478
人们	-479
形成	-480
政策	-481
人类	-482
参加	-483
并且	-484
快速	-485
用于	-486
系列	-487
2.	-488
▁嘛	-489
▁让	-490
▁跟	-491
上市	-492
产生	-493
关于	-494
模式	-495
毕业	-496
目标	-497
经验	-498
调查	-499
运动	-500
▁看到	-501
al	-502
不仅	-503
人民	-504
日本	-505
正在	-506
价值	-507
历史	-508
成功	-509
积极	-510
结果	-511
股份	-512
)、	-513
▁个	-514
▁几	-515
北新	-516
开展	-517
知识	-518
香港	-519
进一步	-520
or	-521
▁放	-522
帮助	-523
联网	-524
▁才	-525
▁高	-526
参与	-527
我的	-528
精神	-529
美元	-530
▁已经	-531
生态保护生态保护	-532
18	-533
一般	-534
制造	-535
成本	-536
有关	-537
身体	-538
这是	-539
阶段	-540
▁同	-541
一直	-542
上海	-543
优势	-544
还有	-545
▁从	-546
▁发	-547
▁走	-548
》,	-549
年来	-550
第三	-551
上的	-552
减少	-553
变化	-554
无法	-555
装饰	-556
东西	-557
人才	-558
持续	-559
故事	-560
比赛	-561
规划	-562
▁三	-563
全面	-564
准备	-565
教学	-566
比例	-567
面积	-568
▁M	-569
▁听	-570
▁长	-571
儿童	-572
教师	-573
稳定	-574
会议	-575
制作	-576
加工	-577
努力	-578
幸福	-579
得到	-580
教授	-581
方案	-582
样的	-583
记者	-584
▁一起	-585
的时候	-586
▁4	-587
▁5	-588
▁她	-589
创业	-590
受到	-591
推广	-592
研发	-593
竞争	-594
来说	-595
▁加油	-596
▁如果	-597
2018	-598
▁每	-599
公园	-600
共同	-601
广泛	-602
患者	-603
收入	-604
核心	-605
▁用	-606
他的	-607
导致	-608
接受	-609
方向	-610
机会	-611
表现	-612
长期	-613
▁《	-614
今年	-615
分别	-616
期待	-617
检查	-618
简单	-619
试验	-620
▁感觉	-621
是一种	-622
▁后	-623
▁年	-624
▁玩	-625
一次	-626
丰富	-627
决定	-628
培养	-629
建立	-630
战略	-631
正常	-632
行为	-633
设施	-634
▁不要	-635
任何	-636
同比	-637
快乐	-638
整体	-639
最后	-640
橡胶	-641
除了	-642
24	-643
▁带	-644
▁无	-645
▁请	-646
原因	-647
机械	-648
来自	-649
虽然	-650
资产	-651
产品的	-652
▁比	-653
▁着	-654
主题	-655
只有	-656
正式	-657
看到	-658
维护	-659
风险	-660
过程中	-661
80	-662
▁男	-663
保证	-664
商品	-665
并不	-666
形式	-667
职业	-668
调整	-669
运营	-670
▁不会	-671
25	-672
3.	-673
en	-674
下降	-675
告诉	-676
四川	-677
因素	-678
成立	-679
是否	-680
疫情	-681
的大	-682
▁两	-683
▁完	-684
塑料	-685
媒体	-686
提出	-687
银行	-688
▁回来	-689
60	-690
▁谁	-691
事业	-692
事情	-693
室内	-694
建议	-695
摘要	-696
明显	-697
污染	-698
理解	-699
申请	-700
表面	-701
▁不能	-702
发展的	-703
我们的	-704
▁S	-705
严重	-706
具体	-707
员工	-708
坚持	-709
开放	-710
推动	-711
操作	-712
民族	-713
造成	-714
重要的	-715
▁哈哈哈哈	-716
▁C	-717
制品	-718
咨询	-719
商业	-720
数字	-721
观众	-722
▁还有	-723
▁点	-724
中药	-725
公共	-726
分钟	-727
化学	-728
另外	-729
就业	-730
指出	-731
按照	-732
时期	-733
自身	-734
资金	-735
负责人	-736
le	-737
▁头	-738
体验	-739
出来	-740
加强	-741
化的	-742
女性	-743
宣传	-744
家庭	-745
搜索	-746
深圳	-747
特点	-748
的话	-749
皮肤	-750
程序	-751
空间	-752
结束	-753
联合	-754
都有	-755
领导	-756
食品	-757
▁但是	-758
▁为什么	-759
▁更	-760
专家	-761
当地	-762
组成	-763
计算	-764
一种	-765
之前	-766
位置	-767
公主	-768
整个	-769
是在	-770
注册	-771
肯定	-772
路桥	-773
▁好看	-774
良好的	-775
22	-776
pp	-777
▁6	-778
以下	-779
出口	-780
十分	-781
大量	-782
来看	-783
法律	-784
的高	-785
软件	-786
面对	-787
▁本文	-788
不同的	-789
2017	-790
▁哥	-791
▁月	-792
投标	-793
条件	-794
经过	-795
考虑	-796
▁那个	-797
▁那么	-798
是一个	-799
研究所	-800
▁本文摘要	-801
▁记	-802
促进	-803
明确	-804
检测	-805
相比	-806
规范	-807
趋势	-808
2021	-809
7.	-810
▁喝	-811
一下	-812
一样	-813
从而	-814
优秀	-815
保障	-816
创作	-817
力量	-818
化工	-819
度的	-820
形象	-821
欢迎	-822
现场	-823
理念	-824
鉴定	-825
风格	-826
北新路桥	-827
▁难	-828
多种	-829
左右	-830
心理	-831
意思	-832
打造	-833
排名	-834
推进	-835
环保	-836
过去	-837
避免	-838
金属	-839
▁这样	-840
公司的	-841
▁P	-842
、“	-843
万吨	-844
下来	-845
协会	-846
完善	-847
小时	-848
少年	-849
普通	-850
最终	-851
满足	-852
理论	-853
统一	-854
足球	-855
降低	-856
的工作	-857
▁刚	-858
▁自	-859
不可	-860
培训	-861
多个	-862
工艺	-863
性的	-864
措施	-865
植物	-866
甚至	-867
▁回家	-868
▁因为	-869
互联网	-870
消费者	-871
as	-872
个月	-873
办公	-874
尤其	-875
期间	-876
此外	-877
照片	-878
电动	-879
的新	-880
空气	-881
联系	-882
适合	-883
▁所以	-884
40	-885
ol	-886
▁但	-887
▁学	-888
▁问	-889
▁黑	-890
》、	-891
加入	-892
取得	-893
安装	-894
成长	-895
的小	-896
行的	-897
证券	-898
针对	-899
▁一样	-900
99	-901
es	-902
世纪	-903
也不	-904
利润	-905
火锅	-906
目的	-907
相信	-908
革命	-909
音乐	-910
▁D	-911
▁拍	-912
▁而	-913
▁里	-914
先进	-915
力的	-916
办法	-917
发行	-918
多的	-919
委员	-920
完全	-921
效率	-922
数量	-923
方便	-924
欧洲	-925
语言	-926
▁不过	-927
工作的	-928
进行了	-929
同比增长	-930
8.	-931
am	-932
ou	-933
▁家	-934
▁挺	-935
▁见	-936
也有	-937
从事	-938
区域	-939
如此	-940
密封	-941
属于	-942
意识	-943
日常	-944
智慧	-945
玻璃	-946
确实	-947
科研	-948
行政	-949
起重	-950
道路	-951
集中	-952
高的	-953
500	-954
▁可能	-955
的产品	-956
国家公园	-957
,《	-958
▁亲	-959
▁地	-960
▁求	-961
▁超	-962
举办	-963
事件	-964
再次	-965
升级	-966
半年	-967
引起	-968
感觉	-969
指导	-970
确保	-971
考试	-972
费用	-973
颜色	-974
ing	-975
高速公路	-976
**	-977
▁据	-978
不要	-979
严格	-980
展示	-981
才能	-982
探索	-983
营销	-984
资料	-985
▁一定	-986
▁时间	-987
也可以	-988
IN	-989
it	-990
▁-	-991
▁分	-992
会有	-993
依然	-994
充分	-995
同学	-996
吸引	-997
商务	-998
年人	-999
生命	-1000
经常	-1001
老师	-1002
节目	-1003
董事	-1004
▁明天	-1005
亿美元	-1006
市场的	-1007
▁是不是	-1008
▁A	-1009
▁B	-1010
▁哎	-1011
▁总	-1012
▁眼	-1013
▁阿	-1014
体的	-1015
博士	-1016
及时	-1017
发挥	-1018
增强	-1019
思想	-1020
有的	-1021
构成	-1022
此次	-1023
状态	-1024
疾病	-1025
英国	-1026
▁其实	-1027
6.	-1028
ac	-1029
▁T	-1030
下的	-1031
不过	-1032
你的	-1033
全部	-1034
去年	-1035
宣布	-1036
想要	-1037
报道	-1038
掌握	-1039
本次	-1040
监测	-1041
节能	-1042
英语	-1043
”、“	-1044
▁一直	-1045
之间的	-1046
招投标	-1047
等方面	-1048
oo	-1049
▁二	-1050
▁咋	-1051
▁白	-1052
▁穿	-1053
令人	-1054
例如	-1055
值得	-1056
全体	-1057
出了	-1058
创造	-1059
品质	-1060
大利	-1061
实践	-1062
成果	-1063
机制	-1064
机的	-1065
移动	-1066
简称	-1067
类型	-1068
统计	-1069
资本	-1070
韩国	-1071
▁应该	-1072
▁G	-1073
▁事	-1074
▁哇	-1075
▁安	-1076
▁胖	-1077
万元	-1078
卫生	-1079
厂家	-1080
压力	-1081
复合	-1082
意见	-1083
成绩	-1084
测试	-1085
电池	-1086
确定	-1087
细胞	-1088
背景	-1089
车辆	-1090
迅速	-1091
队伍	-1092
▁一下	-1093
▁起来	-1094
27	-1095
4.	-1096
el	-1097
▁前	-1098
。“	-1099
任务	-1100
只要	-1101
哲学	-1102
必要	-1103
意义	-1104
有着	-1105
深入	-1106
用的	-1107
电力	-1108
社区	-1109
程度	-1110
者的	-1111
认识	-1112
通常	-1113
▁出来	-1114
▁好像	-1115
▁然后	-1116
的重要	-1117
ic	-1118
▁像	-1119
▁反	-1120
▁姐	-1121
中小	-1122
劳动	-1123
合理	-1124
后的	-1125
它们	-1126
平方	-1127
截至	-1128
消息	-1129
真正	-1130
符合	-1131
逐渐	-1132
▁最近	-1133
最大的	-1134
研究生	-1135
系统的	-1136
▁.	-1137
▁清	-1138
上升	-1139
利于	-1140
各类	-1141
处于	-1142
实验	-1143
对方	-1144
恢复	-1145
文明	-1146
股东	-1147
认证	-1148
贡献	-1149
高校	-1150
▁不错	-1151
一定的	-1152
是什么	-1153
▁201	-1154
▁变	-1155
▁叫	-1156
▁哈	-1157
▁昨	-1158
分为	-1159
发电	-1160
各地	-1161
在这	-1162
地板	-1163
展开	-1164
平安	-1165
投入	-1166
文章	-1167
河南	-1168
然而	-1169
爆发	-1170
特色	-1171
相互	-1172
知名	-1173
赛季	-1174
距离	-1175
重视	-1176
▁可爱	-1177
▁哪里	-1178
▁好好	-1179
▁开心	-1180
▁记得	-1181
▁周	-1182
位于	-1183
充电	-1184
大型	-1185
如今	-1186
广东	-1187
成员	-1188
改变	-1189
未成	-1190
构建	-1191
校园	-1192
演员	-1193
电话	-1194
自主	-1195
苹果	-1196
重大	-1197
▁东西	-1198
▁只是	-1199
▁晚上	-1200
更多的	-1201
的主要	-1202
23	-1203
26	-1204
et	-1205
▁懂	-1206
▁换	-1207
▁结	-1208
▁花	-1209
▁送	-1210
优化	-1211
出的	-1212
双方	-1213
发动	-1214
只是	-1215
在线	-1216
复杂	-1217
娱乐	-1218
尺寸	-1219
尽管	-1220
平均	-1221
幼儿	-1222
拒绝	-1223
改革	-1224
海洋	-1225
温度	-1226
漂亮	-1227
煤炭	-1228
离开	-1229
突破	-1230
生态保护生态保护生态保护生态保护	-1231
▁L	-1232
》《	-1233
不得	-1234
优质	-1235
公开	-1236
兴趣	-1237
凝土	-1238
创建	-1239
制定	-1240
同期	-1241
报名	-1242
担保	-1243
文学	-1244
有些	-1245
每个	-1246
法规	-1247
海外	-1248
物质	-1249
特殊	-1250
现象	-1251
监督	-1252
连接	-1253
高度	-1254
▁2、	-1255
▁希望	-1256
▁晚安	-1257
▁第一	-1258
企业的	-1259
混凝土	-1260
5.	-1261
ch	-1262
▁原	-1263
▁洗	-1264
信用	-1265
内部	-1266
制度	-1267
加拿	-1268
反应	-1269
基地	-1270
安排	-1271
广州	-1272
强度	-1273
成都	-1274
执行	-1275
月份	-1276
机关	-1277
生的	-1278
相对	-1279
重庆	-1280
000	-1281
▁不好	-1282
▁准备	-1283
▁快乐	-1284
▁生日	-1285
的方式	-1286
自动化	-1287
▁祝	-1288
公里	-1289
具备	-1290
到的	-1291
学科	-1292
库存	-1293
微信	-1294
所在	-1295
指数	-1296
收购	-1297
替代	-1298
根本	-1299
比上	-1300
比如	-1301
渝长	-1302
自由	-1303
营业	-1304
转型	-1305
速度	-1306
逻辑	-1307
重新	-1308
院校	-1309
面的	-1310
顺利	-1311
领先	-1312
▁1、	-1313
▁公司	-1314
▁很多	-1315
▁先	-1316
▁干	-1317
三个	-1318
中央	-1319
之外	-1320
今天	-1321
公交	-1322
分布	-1323
北市	-1324
大力	-1325
季度	-1326
它的	-1327
展览	-1328
山东	-1329
当前	-1330
旅行	-1331
时的	-1332
每天	-1333
物的	-1334
突然	-1335
群众	-1336
腐蚀	-1337
著名	-1338
行动	-1339
金山	-1340
▁回去	-1341
▁好吃	-1342
▁有点	-1343
委员会	-1344
微生物	-1345
毕业生	-1346
的专业	-1347
29	-1348
33	-1349
70	-1350
▁全	-1351
▁梦	-1352
▁瘦	-1353
▁笑	-1354
▁起	-1355
▁随	-1356
为主	-1357
以前	-1358
充满	-1359
几乎	-1360
分享	-1361
印度	-1362
原则	-1363
困难	-1364
尼奥	-1365
接头	-1366
期货	-1367
来源	-1368
电脑	-1369
的最	-1370
租赁	-1371
经历	-1372
落实	-1373
表达	-1374
角色	-1375
解释	-1376
评价	-1377
运行	-1378
连续	-1379
适应	-1380
钢铁	-1381
销量	-1382
199	-1383
▁一点	-1384
▁一般	-1385
▁学校	-1386
▁开始	-1387
▁朋友	-1388
▁看看	-1389
▁肯定	-1390
了一个	-1391
留学生	-1392
的问题	-1393
28	-1394
om	-1395
▁冷	-1396
》(	-1397
一家	-1398
亚洲	-1399
以后	-1400
养老	-1401
前景	-1402
吸收	-1403
将于	-1404
展现	-1405
技能	-1406
推荐	-1407
文件	-1408
游客	-1409
网上	-1410
能量	-1411
运输	-1412
防止	-1413
饰品	-1414
▁别人	-1415
▁吃饭	-1416
可能会	-1417
大数据	-1418
新能源	-1419
方面的	-1420
的情况	-1421
55	-1422
US	-1423
il	-1424
ow	-1425
▁半	-1426
▁死	-1427
人体	-1428
人数	-1429
仍然	-1430
体现	-1431
党员	-1432
几个	-1433
厉害	-1434
固定	-1435
家长	-1436
将在	-1437
居住	-1438
工具	-1439
布局	-1440
强调	-1441
改善	-1442
激光	-1443
的外	-1444
监管	-1445
编号	-1446
罗斯	-1447
配合	-1448
首次	-1449
▁3、	-1450
▁为了	-1451
▁以后	-1452
▁北京	-1453
▁手机	-1454
▁问题	-1455
净利润	-1456
2016	-1457
%;	-1458
SD	-1459
▁E	-1460
▁、	-1461
▁十	-1462
▁宝	-1463
▁水	-1464
创意	-1465
医学	-1466
另一	-1467
启动	-1468
嘿嘿	-1469
国外	-1470
定制	-1471
找到	-1472
机器	-1473
机场	-1474
纤维	-1475
转变	-1476
进口	-1477
▁他们	-1478
▁幸福	-1479
2012	-1480
45	-1481
9.	-1482
▁华	-1483
▁外	-1484
▁忘	-1485
▁时	-1486
▁气	-1487
▁脸	-1488
▁该	-1489
不少	-1490
中华	-1491
主任	-1492
书记	-1493
作业	-1494
供应	-1495
做好	-1496
免费	-1497
公告	-1498
区别	-1499
哪些	-1500
图片	-1501
地产	-1502
学前	-1503
年轻	-1504
强的	-1505
当然	-1506
性和	-1507
担心	-1508
无论	-1509
有所	-1510
格尔	-1511
检验	-1512
每年	-1513
永远	-1514
浙江	-1515
球员	-1516
绿色	-1517
美术	-1518
舞蹈	-1519
营养	-1520
覆盖	-1521
说明	-1522
资格	-1523
车站	-1524
酒店	-1525
▁不想	-1526
▁只有	-1527
▁地方	-1528
加拿大	-1529
计算机	-1530
1-	-1531
OL	-1532
is	-1533
▁8	-1534
▁您	-1535
▁手	-1536
▁抱	-1537
▁拉	-1538
▁考	-1539
▁路	-1540
▁近	-1541
乐园	-1542
乐部	-1543
也会	-1544
也在	-1545
习惯	-1546
亚投	-1547
优点	-1548
伙伴	-1549
信号	-1550
句话	-1551
呈现	-1552
大会	-1553
学术	-1554
实力	-1555
希金	-1556
政治	-1557
更好	-1558
有一	-1559
毫米	-1560
沟通	-1561
治理	-1562
版权	-1563
症状	-1564
百分	-1565
的热	-1566
盈利	-1567
经典	-1568
色彩	-1569
表演	-1570
规则	-1571
角度	-1572
锈钢	-1573
▁10	-1574
▁今年	-1575
▁嘿嘿	-1576
▁我要	-1577
▁结婚	-1578
为什么	-1579
俄罗斯	-1580
俱乐部	-1581
在一起	-1582
平方米	-1583
普希金	-1584
的一种	-1585
第一个	-1586
黑格尔	-1587
白癜风的	-1588
03	-1589
61	-1590
▁正	-1591
▁狗	-1592
▁话	-1593
▁飞	-1594
一年	-1595
东鹏	-1596
依据	-1597
元素	-1598
其它	-1599
净化	-1600
动力	-1601
合格	-1602
大众	-1603
太阳	-1604
平衡	-1605
循环	-1606
提前	-1607
摄影	-1608
更是	-1609
来的	-1610
模组	-1611
满意	-1612
独特	-1613
球队	-1614
称为	-1615
管道	-1616
绝对	-1617
致力	-1618
财务	-1619
运用	-1620
进步	-1621
造型	-1622
饮食	-1623
高效	-1624
▁中国	-1625
▁以为	-1626
▁厉害	-1627
▁这种	-1628
▁需要	-1629
不知道	-1630
大部分	-1631
设备的	-1632
这样的	-1633
▁新北市	-1634
SM	-1635
▁F	-1636
▁呵	-1637
▁帮	-1638
▁相	-1639
▁约	-1640
▁身	-1641
内的	-1642
农业	-1643
包含	-1644
包装	-1645
化妆	-1646
反映	-1647
只能	-1648
召开	-1649
合同	-1650
名字	-1651
回应	-1652
多少	-1653
家的	-1654
小米	-1655
就会	-1656
引导	-1657
接触	-1658
有了	-1659
演出	-1660
版本	-1661
现实	-1662
的主	-1663
真实	-1664
硕士	-1665
禁止	-1666
种类	-1667
编剧	-1668
蔬菜	-1669
装置	-1670
视频	-1671
认可	-1672
讨论	-1673
训练	-1674
记录	-1675
还要	-1676
通知	-1677
那些	-1678
部件	-1679
阅读	-1680
首先	-1681
App	-1682
▁下次	-1683
▁意思	-1684
▁昨天	-1685
▁最后	-1686
▁特别	-1687
▁生活	-1688
▁统一	-1689
▁随着	-1690
》、《	-1691
专业的	-1692
发动机	-1693
在中国	-1694
学生的	-1695
密封圈	-1696
有利于	-1697
网站的	-1698
1000	-1699
▁统一编号	-1700
股份有限公司	-1701
85	-1702
ur	-1703
▁收	-1704
▁热	-1705
▁留	-1706
▁算	-1707
举行	-1708
众多	-1709
做到	-1710
公布	-1711
到底	-1712
券商	-1713
卫星	-1714
危险	-1715
大多	-1716
大幅	-1717
寿命	-1718
市民	-1719
常见	-1720
广大	-1721
很大	-1722
意味	-1723
是指	-1724
显著	-1725
楼宇	-1726
洋河	-1727
涉及	-1728
爱的	-1729
电波	-1730
的事	-1731
第四	-1732
融合	-1733
贸易	-1734
这么	-1735
都在	-1736
限制	-1737
预期	-1738
预计	-1739
▁2.	-1740
▁告诉	-1741
▁的话	-1742
四川省	-1743
尤其是	-1744
金山区	-1745
2015	-1746
▁生日快乐	-1747
▁新北市金山区	-1748
88	-1749
90	-1750
ED	-1751
IP	-1752
ad	-1753
eb	-1754
▁K	-1755
▁W	-1756
▁与	-1757
▁五	-1758
▁口	-1759
▁哒	-1760
▁恩	-1761
▁木	-1762
上述	-1763
专注	-1764
业绩	-1765
主动	-1766
会上	-1767
使得	-1768
公益	-1769
冲击	-1770
协议	-1771
发表	-1772
名单	-1773
喜剧	-1774
国安	-1775
垃圾	-1776
培育	-1777
多次	-1778
天津	-1779
天然	-1780
她的	-1781
将会	-1782
干燥	-1783
应对	-1784
废水	-1785
建成	-1786
当时	-1787
拓展	-1788
支撑	-1789
来到	-1790
物流	-1791
百姓	-1792
的心	-1793
真的	-1794
而是	-1795
而言	-1796
至今	-1797
至少	-1798
融资	-1799
详细	-1800
遇到	-1801
面临	-1802
鼓励	-1803
▁20	-1804
▁一天	-1805
▁不到	-1806
▁大家	-1807
▁天天	-1808
▁好久	-1809
▁对于	-1810
▁工作	-1811
他们的	-1812
就可以	-1813
生活中	-1814
的基本	-1815
的基础	-1816
问题的	-1817
环境保护	-1818
......	-1819
31	-1820
37	-1821
PP	-1822
▁7	-1823
▁情	-1824
▁日	-1825
▁毛	-1826
▁表	-1827
▁饿	-1828
》。	-1829
下午	-1830
主持	-1831
人工	-1832
会员	-1833
佣金	-1834
加快	-1835
即使	-1836
原理	-1837
参观	-1838
及其	-1839
味道	-1840
场所	-1841
增幅	-1842
大大	-1843
字符	-1844
导演	-1845
小的	-1846
岁的	-1847
年度	-1848
德国	-1849
恋爱	-1850
支付	-1851
效益	-1852
正确	-1853
物理	-1854
独立	-1855
福建	-1856
精彩	-1857
经理	-1858
维修	-1859
舞台	-1860
航空	-1861
著作	-1862
衣服	-1863
认真	-1864
越南	-1865
零售	-1866
青年	-1867
▁没事	-1868
▁目前	-1869
个百分	-1870
安全性	-1871
小程序	-1872
应用于	-1873
有效的	-1874
物联网	-1875
的要求	-1876
董事长	-1877
行业的	-1878
----	-1879
▁负责人	-1880
个百分点	-1881
北新渝长	-1882
os	-1883
▁R	-1884
▁·	-1885
▁万	-1886
▁千	-1887
▁微	-1888
▁滴	-1889
▁肉	-1890
▁行	-1891
不好	-1892
不足	-1893
两种	-1894
于是	-1895
休息	-1896
优游	-1897
伦敦	-1898
住宅	-1899
保温	-1900
几年	-1901
出版	-1902
医生	-1903
协调	-1904
哪个	-1905
回答	-1906
子的	-1907
官方	-1908
干部	-1909
开启	-1910
担任	-1911
招聘	-1912
损失	-1913
新闻	-1914
更斯	-1915
最近	-1916
有机	-1917
条例	-1918
概念	-1919
烈的	-1920
熟悉	-1921
特定	-1922
状况	-1923
直播	-1924
相同	-1925
相当	-1926
素养	-1927
组合	-1928
良好	-1929
设立	-1930
设置	-1931
财政	-1932
ent	-1933
ion	-1934
ook	-1935
▁3.	-1936
▁可是	-1937
▁呵呵	-1938
▁多少	-1939
▁姐姐	-1940
▁孩子	-1941
▁期待	-1942
一定要	-1943
很好的	-1944
意味着	-1945
意大利	-1946
有一个	-1947
起重机	-1948
优游体育	-1949
Wh	-1950
▁它	-1951
▁平	-1952
▁简	-1953
▁红	-1954
▁追	-1955
▁马	-1956
东风	-1957
主办	-1958
享受	-1959
位的	-1960
允许	-1961
克斯	-1962
参考	-1963
外卖	-1964
妈妈	-1965
寻找	-1966
形状	-1967
思考	-1968
总是	-1969
愿意	-1970
我和	-1971
扩大	-1972
挑战	-1973
推出	-1974
数学	-1975
更为	-1976
武汉	-1977
母亲	-1978
毕竟	-1979
氧化	-1980
生存	-1981
留学	-1982
祖国	-1983
终于	-1984
股权	-1985
臭氧	-1986
节日	-1987
英文	-1988
荣誉	-1989
装修	-1990
观察	-1991
超人	-1992
通信	-1993
青春	-1994
顾客	-1995
高等	-1996
▁你好	-1997
▁哥哥	-1998
▁好多	-1999
▁当然	-2000
不锈钢	-2001
亚投行	-2002
办公室	-2003
可以在	-2004
惠更斯	-2005
投资者	-2006
数据库	-2007
的一个	-2008
的企业	-2009
的技术	-2010
高质量	-2011
数据显示	-2012
35	-2013
65	-2014
ST	-2015
ed	-2016
oc	-2017
”)	-2018
▁I	-2019
▁”	-2020
▁假	-2021
▁南	-2022
▁咱	-2023
▁四	-2024
▁坐	-2025
▁差	-2026
▁张	-2027
▁西	-2028
▁跑	-2029
▁麻	-2030
一旦	-2031
也许	-2032
人士	-2033
似乎	-2034
供热	-2035
兄弟	-2036
共享	-2037
农村	-2038
分类	-2039
利益	-2040
加速	-2041
原料	-2042
变得	-2043
变成	-2044
命运	-2045
国债	-2046
女儿	-2047
姑娘	-2048
少数	-2049
志玲	-2050
怎样	-2051
感应	-2052
或许	-2053
提到	-2054
是由	-2055
最大	-2056
本科	-2057
消防	-2058
深冷	-2059
湖南	-2060
电网	-2061
示范	-2062
穆里	-2063
等等	-2064
表明	-2065
身份	-2066
过滤	-2067
都会	-2068
ats	-2069
▁1.	-2070
▁两个	-2071
▁人家	-2072
▁比较	-2073
▁睡觉	-2074
丰富的	-2075
心理学	-2076
的使用	-2077
的研究	-2078
竞争力	-2079
简单的	-2080
致力于	-2081
艺术家	-2082
2009	-2083
aceb	-2084
可以通过	-2085
穆里尼奥	-2086
acebook	-2087
95	-2088
ia	-2089
▁伤	-2090
▁卖	-2091
▁噢	-2092
▁星	-2093
▁海	-2094
▁钱	-2095
▁香	-2096
。(	-2097
一切	-2098
三年	-2099
下面	-2100
专利	-2101
东坡	-2102
主义	-2103
主体	-2104
互通	-2105
人力	-2106
体制	-2107
危害	-2108
各项	-2109
品种	-2110
在校	-2111
处罚	-2112
她们	-2113
岗位	-2114
幽默	-2115
异常	-2116
录取	-2117
往往	-2118
成熟	-2119
批准	-2120
新区	-2121
日益	-2122
日起	-2123
晚上	-2124
标致	-2125
正是	-2126
清楚	-2127
清洁	-2128
父母	-2129
玩家	-2130
素质	-2131
维持	-2132
股票	-2133
自行	-2134
色的	-2135
西省	-2136
让人	-2137
许可	-2138
证明	-2139
诚信	-2140
说过	-2141
资质	-2142
转发	-2143
邀请	-2144
配置	-2145
量的	-2146
院长	-2147
预测	-2148
USB	-2149
▁4、	-2150
▁每天	-2151
▁照片	-2152
巨大的	-2153
很容易	-2154
接下来	-2155
林志玲	-2156
的地方	-2157
的生活	-2158
▁怎么样	-2159
Whats	-2160
32	-2161
68	-2162
BA	-2163
li	-2164
ot	-2165
▁:	-2166
▁六	-2167
▁写	-2168
▁师	-2169
▁拿	-2170
▁试	-2171
一点	-2172
丙烯	-2173
党委	-2174
关心	-2175
加上	-2176
印刷	-2177
参数	-2178
司法	-2179
后来	-2180
图书	-2181
地下	-2182
地址	-2183
地点	-2184
基于	-2185
基因	-2186
多年	-2187
如下	-2188
定位	-2189
家具	-2190
影片	-2191
很难	-2192
态度	-2193
情绪	-2194
手段	-2195
投票	-2196
新冠	-2197
时尚	-2198
是不	-2199
木材	-2200
流行	-2201
流量	-2202
测量	-2203
深刻	-2204
相应	-2205
礼品	-2206
纪念	-2207
美克	-2208
羡慕	-2209
老人	-2210
贯彻	-2211
违法	-2212
里的	-2213
里面	-2214
镜头	-2215
阳光	-2216
▁发现	-2217
▁根据	-2218
▁注意	-2219
▁漂亮	-2220
▁老师	-2221
▁而且	-2222
▁说话	-2223
世界上	-2224
以上的	-2225
并没有	-2226
很多人	-2227
的影响	-2228
的时间	-2229
的服务	-2230
相关的	-2231
第一次	-2232
资源与	-2233
经济发展	-2234
Facebook	-2235
34	-2236
75	-2237
IS	-2238
od	-2239
st	-2240
▁减	-2241
▁哟	-2242
▁活	-2243
▁火	-2244
▁饰	-2245
下一	-2246
不再	-2247
不到	-2248
中文	-2249
之处	-2250
仅仅	-2251
仪式	-2252
保健	-2253
做出	-2254
公众	-2255
公关	-2256
准确	-2257
动态	-2258
十年	-2259
协助	-2260
同样	-2261
同步	-2262
周鹏	-2263
地位	-2264
声音	-2265
威尔	-2266
对象	-2267
尿病	-2268
师生	-2269
式塔	-2270
彼此	-2271
感情	-2272
成分	-2273
改造	-2274
新型	-2275
日上	-2276
更新	-2277
标志	-2278
流程	-2279
球迷	-2280
白斑	-2281
的不	-2282
看看	-2283
纷纷	-2284
翻译	-2285
舒适	-2286
芯片	-2287
论坛	-2288
诊断	-2289
赢得	-2290
采取	-2291
驱动	-2292
300	-2293
▁以前	-2294
▁几天	-2295
▁出去	-2296
▁头发	-2297
▁必须	-2298
▁由于	-2299
▁超级	-2300
▁过去	-2301
一个人	-2302
产业的	-2303
孩子们	-2304
已成为	-2305
房地产	-2306
是一家	-2307
更好的	-2308
的设计	-2309
的需求	-2310
研究院	-2311
糖尿病	-2312
美克美	-2313
聚丙烯	-2314
还可以	-2315
青少年	-2316
领域的	-2317
东风标致	-2318
以下简称	-2319
越来越多	-2320
?”	-2321
av	-2322
”(	-2323
▁)	-2324
▁9	-2325
▁呐	-2326
▁将	-2327
▁忙	-2328
▁温	-2329
▁赶	-2330
一流	-2331
一路	-2332
不起	-2333
专门	-2334
主席	-2335
五年	-2336
他说	-2337
代码	-2338
低于	-2339
作者	-2340
儿子	-2341
先生	-2342
剧情	-2343
办学	-2344
即可	-2345
县令	-2346
各国	-2347
周边	-2348
哪里	-2349
始终	-2350
尽量	-2351
居然	-2352
巨大	-2353
强化	-2354
房间	-2355
承担	-2356
指标	-2357
搭建	-2358
文字	-2359
文艺	-2360
旗下	-2361
普及	-2362
水泥	-2363
混合	-2364
清晰	-2365
照明	-2366
环节	-2367
电路	-2368
的好	-2369
紧张	-2370
线上	-2371
美观	-2372
联盟	-2373
药物	-2374
评估	-2375
贫困	-2376
贵州	-2377
超越	-2378
轨道	-2379
追求	-2380
逐步	-2381
那个	-2382
重组	-2383
闭症	-2384
频率	-2385
高于	-2386
高温	-2387
高级	-2388
▁上班	-2389
▁世界	-2390
▁值得	-2391
▁小时	-2392
▁放假	-2393
▁真是	-2394
▁这些	-2395
▁那种	-2396
。19	-2397
上半年	-2398
传统的	-2399
分布式	-2400
大学生	-2401
如果你	-2402
实际上	-2403
幼儿园	-2404
形成了	-2405
是中国	-2406
更好地	-2407
有什么	-2408
段时间	-2409
特别是	-2410
的原因	-2411
2008	-2412
上市公司	-2413
工作人员	-2414
未成年人	-2415
橡胶接头	-2416
激光电视	-2417
解决方案	-2418
这个问题	-2419
新能源汽车	-2420
,4	-2421
NE	-2422
iv	-2423
la	-2424
mm	-2425
op	-2426
▁H	-2427
▁停	-2428
▁号	-2429
▁吓	-2430
▁咯	-2431
▁并	-2432
▁强	-2433
▁画	-2434
▁车	-2435
▁黄	-2436
一体	-2437
不错	-2438
丽的	-2439
也将	-2440
也要	-2441
予州	-2442
二十	-2443
二零	-2444
会在	-2445
信心	-2446
入境	-2447
全市	-2448
全新	-2449
医药	-2450
半导	-2451
华为	-2452
含有	-2453
唯一	-2454
商标	-2455
四个	-2456
土工	-2457
在于	-2458
学会	-2459
安徽	-2460
定期	-2461
就像	-2462
广西	-2463
度为	-2464
康复	-2465
思维	-2466
数码	-2467
曾经	-2468
来了	-2469
杭州	-2470
林业	-2471
校长	-2472
消毒	-2473
清单	-2474
爱情	-2475
物业	-2476
现有	-2477
省级	-2478
社交	-2479
第五	-2480
累计	-2481
缺乏	-2482
网民	-2483
美的	-2484
考核	-2485
能耗	-2486
英雄	-2487
讲述	-2488
赛事	-2489
近日	-2490
适当	-2491
透过	-2492
配套	-2493
酰胺	-2494
采访	-2495
金刚	-2496
饮料	-2497
黑色	-2498
▁关注	-2499
▁努力	-2500
▁反正	-2501
▁回复	-2502
▁我家	-2503
▁请问	-2504
▁还好	-2505
、0.	-2506
不合格	-2507
人民币	-2508
介绍了	-2509
国家级	-2510
带来的	-2511
技术的	-2512
木地板	-2513
电影的	-2514
自闭症	-2515
让我们	-2516
最重要的	-2517
盈利能力	-2518
营业收入	-2519
2,	-2520
97	-2521
ct	-2522
”“	-2523
▁n	-2524
▁东	-2525
▁传	-2526
▁保	-2527
▁傻	-2528
▁单	-2529
▁夸	-2530
▁妹	-2531
▁搞	-2532
▁照	-2533
▁越	-2534
▁面	-2535
一位	-2536
一致	-2537
下去	-2538
人口	-2539
人物	-2540
仔细	-2541
他在	-2542
但在	-2543
体检	-2544
使命	-2545
先后	-2546
出演	-2547
分校	-2548
分离	-2549
力学	-2550
加盟	-2551
化剂	-2552
占比	-2553
厂商	-2554
周年	-2555
商家	-2556
地球	-2557
垫片	-2558
外观	-2559
失败	-2560
对外	-2561
屋顶	-2562
差异	-2563
带领	-2564
广场	-2565
度和	-2566
引领	-2567
微型	-2568
恭喜	-2569
您的	-2570
感到	-2571
手柄	-2572
数的	-2573
本身	-2574
材质	-2575
标题	-2576
格局	-2577
水果	-2578
法国	-2579
湖北	-2580
灵活	-2581
爱心	-2582
父亲	-2583
特性	-2584
硬件	-2585
磁体	-2586
积累	-2587
篮板	-2588
综艺	-2589
老板	-2590
联赛	-2591
自学	-2592
自贸	-2593
薇薇	-2594
蛋白	-2595
视觉	-2596
话题	-2597
较为	-2598
防腐	-2599
集成	-2600
面向	-2601
预约	-2602
颗粒	-2603
题材	-2604
ock	-2605
▁4.	-2606
▁一次	-2607
▁不用	-2608
▁不行	-2609
▁看着	-2610
▁这是	-2611
▁除了	-2612
使用的	-2613
出现了	-2614
半导体	-2615
和社会	-2616
子公司	-2617
所有的	-2618
新技术	-2619
服务的	-2620
电动车	-2621
看起来	-2622
科学院	-2623
这句话	-2624
项目的	-2625
2000	-2626
四川大学	-2627
国际教育	-2628
生态环境	-2629
聚丙烯酰胺	-2630
资源与开发	-2631
WhatsApp	-2632
1、	-2633
47	-2634
59	-2635
:0	-2636
CA	-2637
ON	-2638
▁剪	-2639
▁北	-2640
▁字	-2641
▁已	-2642
▁帅	-2643
▁怕	-2644
▁短	-2645
▁苏	-2646
▁连	-2647
。《	-2648
三七	-2649
下游	-2650
不了	-2651
两年	-2652
主角	-2653
之中	-2654
事项	-2655
人在	-2656
以为	-2657
公安	-2658
冠军	-2659
前往	-2660
加热	-2661
厕所	-2662
各个	-2663
周围	-2664
回到	-2665
夏天	-2666
外环	-2667
大奖	-2668
大赛	-2669
委会	-2670
学位	-2671
审批	-2672
密切	-2673
密码	-2674
小编	-2675
居民	-2676
工厂	-2677
店铺	-2678
开设	-2679
很快	-2680
总结	-2681
感受	-2682
成型	-2683
所谓	-2684
接近	-2685
是对	-2686
曲线	-2687
氨酸	-2688
污水	-2689
消声	-2690
渠道	-2691
牛奶	-2692
特征	-2693
理想	-2694
由此	-2695
登记	-2696
的中	-2697
的光	-2698
监狱	-2699
相机	-2700
石油	-2701
破坏	-2702
租车	-2703
秩序	-2704
等多	-2705
类似	-2706
组件	-2707
节奏	-2708
节省	-2709
讨厌	-2710
说是	-2711
车主	-2712
轻松	-2713
辅助	-2714
途径	-2715
都不	-2716
链接	-2717
防护	-2718
防控	-2719
预防	-2720
领航	-2721
餐厅	-2722
餐饮	-2723
黄金	-2724
14.	-2725
▁..	-2726
▁一句	-2727
▁作为	-2728
▁关于	-2729
▁减肥	-2730
▁家里	-2731
▁干嘛	-2732
▁早上	-2733
▁木有	-2734
▁本来	-2735
▁此外	-2736
▁突然	-2737
▁要是	-2738
▁这里	-2739
不需要	-2740
专注于	-2741
全世界	-2742
大利亚	-2743
很大的	-2744
得到了	-2745
提供了	-2746
有很多	-2747
材料的	-2748
每一个	-2749
的中国	-2750
的作用	-2751
的内容	-2752
的同时	-2753
的比例	-2754
等多种	-2755
臭氧机	-2756
2011	-2757
公路工程	-2758
基础设施	-2759
市场需求	-2760
建筑节能	-2761
澳大利亚	-2762
美克美家	-2763
6%	-2764
84	-2765
Sh	-2766
▁光	-2767
▁养	-2768
▁刘	-2769
▁双	-2770
▁唉	-2771
▁嘴	-2772
▁嘻	-2773
▁国	-2774
▁实	-2775
▁少	-2776
一名	-2777
不良	-2778
临床	-2779
之下	-2780
也能	-2781
争议	-2782
互动	-2783
你们	-2784
修理	-2785
储蓄	-2786
入了	-2787
全省	-2788
公平	-2789
典型	-2790
冷却	-2791
减速	-2792
则是	-2793
创始	-2794
别人	-2795
办理	-2796
务院	-2797
区的	-2798
十二	-2799
发出	-2800
发病	-2801
变形	-2802
口罩	-2803
后期	-2804
团体	-2805
围绕	-2806
国民	-2807
在一	-2808
复制	-2809
外国	-2810
天气	-2811
头发	-2812
委托	-2813
学历	-2814
宁波	-2815
将来	-2816
年龄	-2817
广播	-2818
应当	-2819
很好	-2820
徐熙	-2821
性质	-2822
慈善	-2823
戏剧	-2824
或是	-2825
所需	-2826
承诺	-2827
把握	-2828
挑选	-2829
探讨	-2830
放在	-2831
新疆	-2832
有人	-2833
染色	-2834
标识	-2835
案例	-2836
油气	-2837
添加	-2838
生长	-2839
电磁	-2840
百度	-2841
看来	-2842
空调	-2843
突出	-2844
立即	-2845
策略	-2846
终端	-2847
耀华	-2848
耶拿	-2849
胎儿	-2850
自我	-2851
补充	-2852
货架	-2853
资讯	-2854
足够	-2855
转化	-2856
转让	-2857
较高	-2858
采暖	-2859
门窗	-2860
马戏	-2861
高端	-2862
高达	-2863
齐全	-2864
APP	-2865
VIN	-2866
▁不了	-2867
▁不敢	-2868
▁休息	-2869
▁头像	-2870
▁恭喜	-2871
▁找到	-2872
▁有人	-2873
▁过来	-2874
▁通过	-2875
二零一	-2876
产业链	-2877
催化剂	-2878
图书馆	-2879
工程师	-2880
带来了	-2881
建设的	-2882
徐熙娣	-2883
总经理	-2884
服务业	-2885
未成年	-2886
本网站	-2887
植物性	-2888
的游戏	-2889
还没有	-2890
都可以	-2891
2007	-2892
▁有没有	-2893
▁男朋友	-2894
健康管理	-2895
学前教育	-2896
转型升级	-2897
国家公园是什么	-2898
08	-2899
2、	-2900
36	-2901
NI	-2902
he	-2903
of	-2904
▁体	-2905
▁初	-2906
▁包	-2907
▁唱	-2908
▁棒	-2909
▁此	-2910
▁聊	-2911
▁读	-2912
▁饭	-2913
三大	-2914
专用	-2915
中山	-2916
为本	-2917
主人	-2918
乙烯	-2919
人群	-2920
优异	-2921
估计	-2922
使其	-2923
便宜	-2924
便是	-2925
克拉	-2926
创立	-2927
刺激	-2928
加大	-2929
动漫	-2930
匹配	-2931
十一	-2932
十三	-2933
千万	-2934
协同	-2935
原油	-2936
反复	-2937
发起	-2938
古代	-2939
合肥	-2940
器件	-2941
在此	-2942
地面	-2943
基层	-2944
大道	-2945
实体	-2946
宿迁	-2947
将其	-2948
就能	-2949
层次	-2950
展会	-2951
年代	-2952
当代	-2953
总体	-2954
恒大	-2955
感染	-2956
感谢	-2957
慢慢	-2958
打算	-2959
招标	-2960
拯救	-2961
整合	-2962
方的	-2963
显然	-2964
普遍	-2965
更换	-2966
最高	-2967
机遇	-2968
样子	-2969
格兰	-2970
模型	-2971
模板	-2972
灌装	-2973
燃料	-2974
牛津	-2975
独孤	-2976
直到	-2977
矛盾	-2978
神经	-2979
票房	-2980
离子	-2981
答案	-2982
策划	-2983
精度	-2984
给予	-2985
自治	-2986
至于	-2987
药品	-2988
蒙古	-2989
贷款	-2990
车的	-2991
较大	-2992
辽宁	-2993
这款	-2994
通道	-2995
都市	-2996
金额	-2997
钢厂	-2998
附近	-2999
陶瓷	-3000
随后	-3001
食物	-3002
高中	-3003
ate	-3004
era	-3005
▁上海	-3006
▁两天	-3007
▁中药	-3008
▁你家	-3009
▁刚刚	-3010
▁原来	-3011
▁嘻嘻	-3012
▁居然	-3013
▁想要	-3014
▁我会	-3015
▁抱抱	-3016
▁电影	-3017
▁网络	-3018
▁羡慕	-3019
一体的	-3020
不超过	-3021
中国的	-3022
也就是	-3023
出版社	-3024
出现在	-3025
分别为	-3026
发电机	-3027
和其他	-3028
大量的	-3029
届中国	-3030
日上午	-3031
是因为	-3032
是非常	-3033
显示者	-3034
水平的	-3035
的行为	-3036
福建省	-3037
获得了	-3038
试验机	-3039
▁啥时候	-3040
快速增长	-3041
我和我的	-3042
电波爆发	-3043
购买资产	-3044
我和我的祖国	-3045
38	-3046
42	-3047
5%	-3048
56	-3049
64	-3050
Br	-3051
PC	-3052
ie	-3053
ig	-3054
ir	-3055
us	-3056
▁倒	-3057
▁八	-3058
▁博	-3059
▁哼	-3060
▁失	-3061
▁撒	-3062
▁改	-3063
▁文	-3064
▁王	-3065
▁赞	-3066
▁转	-3067
▁陪	-3068
临时	-3069
为何	-3070
义工	-3071
乐观	-3072
产量	-3073
亮相	-3074
亲子	-3075
代谢	-3076
传感	-3077
伤害	-3078
修改	-3079
党的	-3080
入口	-3081
写作	-3082
决策	-3083
冶金	-3084
出生	-3085
分手	-3086
到达	-3087
助力	-3088
助攻	-3089
区块	-3090
发送	-3091
台湾	-3092
合物	-3093
合金	-3094
吉林	-3095
同意	-3096
啊啊	-3097
回来	-3098
在家	-3099
场地	-3100
均匀	-3101
大小	-3102
审核	-3103
密度	-3104
寒冷	-3105
对此	-3106
尊重	-3107
展出	-3108
带着	-3109
常规	-3110
弹性	-3111
当天	-3112
很有	-3113
心的	-3114
想像	-3115
我市	-3116
接待	-3117
教练	-3118
是以	-3119
是有	-3120
景观	-3121
水分	-3122
注重	-3123
浏览	-3124
涂层	-3125
深度	-3126
清洗	-3127
游乐	-3128
激动	-3129
点击	-3130
用水	-3131
礼物	-3132
端午	-3133
精准	-3134
绘画	-3135
节约	-3136
获取	-3137
落地	-3138
薄膜	-3139
证书	-3140
说道	-3141
负面	-3142
路上	-3143
转换	-3144
辐射	-3145
近期	-3146
这次	-3147
这里	-3148
里斯	-3149
钢材	-3150
长沙	-3151
长的	-3152
雁塔	-3153
高压	-3154
魅力	-3155
▁上课	-3156
▁不管	-3157
▁去年	-3158
▁名字	-3159
▁姑娘	-3160
▁宝宝	-3161
▁年轻	-3162
▁心情	-3163
▁有空	-3164
▁机会	-3165
▁正常	-3166
▁看来	-3167
▁看见	-3168
传感器	-3169
信息化	-3170
另一个	-3171
国内外	-3172
国家队	-3173
大多数	-3174
存在的	-3175
年以来	-3176
并不是	-3177
提出了	-3178
旅行社	-3179
日下午	-3180
最好的	-3181
染色体	-3182
每个人	-3183
独特的	-3184
的选择	-3185
等领域	-3186
自身的	-3187
范围内	-3188
要注意	-3189
资源的	-3190
转发器	-3191
运动会	-3192
100%	-3193
2010	-3194
2013	-3195
▁啊啊啊	-3196
予州化工	-3197
储蓄国债	-3198
儿童乐园	-3199
发行股份	-3200
宿迁学院	-3201
时代领航	-3202
系列产品	-3203
综艺节目	-3204
▁2020	-3205
广泛应用于	-3206
53	-3207
63	-3208
AR	-3209
CD	-3210
nt	-3211
ov	-3212
▁"	-3213
▁=	-3214
▁d	-3215
▁偶	-3216
▁内	-3217
▁友	-3218
▁受	-3219
▁吖	-3220
▁呗	-3221
▁店	-3222
▁房	-3223
▁掉	-3224
▁易	-3225
▁林	-3226
▁满	-3227
▁猜	-3228
▁第	-3229
▁翻	-3230
▁进	-3231
▁骂	-3232
一天	-3233
一部	-3234
不多	-3235
不开	-3236
不管	-3237
个性	-3238
乃至	-3239
之路	-3240
九龙	-3241
人造	-3242
仪器	-3243
休闲	-3244
传递	-3245
保养	-3246
保险	-3247
停止	-3248
党史	-3249
分子	-3250
分拆	-3251
利亚	-3252
刺客	-3253
副本	-3254
动物	-3255
募集	-3256
双重	-3257
发科	-3258
可靠	-3259
合法	-3260
吸塑	-3261
和谐	-3262
品的	-3263
响应	-3264
售后	-3265
四大	-3266
四年	-3267
在不	-3268
坚守	-3269
坚定	-3270
城区	-3271
多样	-3272
天使	-3273
契丹	-3274
威胁	-3275
实上	-3276
尸体	-3277
平面	-3278
当今	-3279
很少	-3280
愿望	-3281
成就	-3282
成的	-3283
我校	-3284
战斗	-3285
接收	-3286
接种	-3287
提醒	-3288
斯波	-3289
新兴	-3290
日前	-3291
早就	-3292
早期	-3293
春天	-3294
是个	-3295
曝光	-3296
最佳	-3297
有害	-3298
深深	-3299
潮流	-3300
澳洲	-3301
烤鸭	-3302
特币	-3303
玛依	-3304
玩具	-3305
男孩	-3306
男性	-3307
病毒	-3308
白羊	-3309
睡眠	-3310
硅藻	-3311
税控	-3312
立足	-3313
粉丝	-3314
职工	-3315
聪明	-3316
观看	-3317
论文	-3318
调节	-3319
账本	-3320
超级	-3321
这就	-3322
透明	-3323
通车	-3324
部署	-3325
铜门	-3326
限定	-3327
静乐	-3328
驾驶	-3329
龙江	-3330
120	-3331
6%,	-3332
ast	-3333
hon	-3334
▁一种	-3335
▁为啥	-3336
▁之前	-3337
▁事情	-3338
▁哪个	-3339
▁在家	-3340
▁确实	-3341
▁第二	-3342
▁虽然	-3343
▁身体	-3344
上海市	-3345
也没有	-3346
化妆品	-3347
发布的	-3348
和服务	-3349
国务院	-3350
国家的	-3351
在全国	-3352
在这里	-3353
怎么样	-3354
成为了	-3355
数字化	-3356
现代化	-3357
生产线	-3358
的事情	-3359
真正的	-3360
硅藻土	-3361
给大家	-3362
联发科	-3363
自贸区	-3364
设计师	-3365
近年来	-3366
anam	-3367
产业发展	-3368
亲子鉴定	-3369
少数民族	-3370
智能手机	-3371
本次交易	-3372
的情况下	-3373
网络安全	-3374
,2019	-3375
anamera	-3376
........	-3377
▁中药资源与开发	-3378
);	-3379
09	-3380
51	-3381
58	-3382
78	-3383
87	-3384
UR	-3385
cm	-3386
im	-3387
oy	-3388
un	-3389
up	-3390
▁O	-3391
▁[	-3392
▁仙	-3393
▁住	-3394
▁切	-3395
▁哭	-3396
▁客	-3397
▁岁	-3398
▁戴	-3399
▁晒	-3400
▁浪	-3401
▁猫	-3402
▁理	-3403
▁疼	-3404
▁管	-3405
▁讲	-3406
▁辛	-3407
▁辣	-3408
▁重	-3409
▁雪	-3410
▁顺	-3411
三分	-3412
不住	-3413
不出	-3414
不适	-3415
专项	-3416
东方	-3417
两人	-3418
中有	-3419
中考	-3420
中间	-3421
主演	-3422
人文	-3423
今后	-3424
体会	-3425
佛教	-3426
做为	-3427
做法	-3428
克昌	-3429
六年	-3430
凭借	-3431
加坡	-3432
动作	-3433
占地	-3434
占据	-3435
印发	-3436
危机	-3437
即将	-3438
咽喉	-3439
园区	-3440
国有	-3441
城镇	-3442
多元	-3443
大隈	-3444
天线	-3445
安静	-3446
实训	-3447
家人	-3448
导航	-3449
展厅	-3450
巴黎	-3451
市政	-3452
应急	-3453
延伸	-3454
式的	-3455
当中	-3456
当年	-3457
我省	-3458
打击	-3459
护理	-3460
护肤	-3461
挡圈	-3462
授权	-3463
接着	-3464
控股	-3465
搅拌	-3466
播出	-3467
收到	-3468
收集	-3469
放大	-3470
旗舰	-3471
时刻	-3472
明星	-3473
最好	-3474
某些	-3475
某种	-3476
桥梁	-3477
此前	-3478
比重	-3479
气候	-3480
活跃	-3481
海关	-3482
涂料	-3483
消化	-3484
深化	-3485
灵魂	-3486
烤漆	-3487
热刺	-3488
猴桃	-3489
用途	-3490
病情	-3491
研讨	-3492
硅胶	-3493
穿刺	-3494
等的	-3495
精品	-3496
缓慢	-3497
羊水	-3498
而出	-3499
花呗	-3500
蓝色	-3501
蔡明	-3502
要素	-3503
规格	-3504
访问	-3505
评级	-3506
调研	-3507
边缘	-3508
还在	-3509
这类	-3510
郑州	-3511
配备	-3512
阳市	-3513
附属	-3514
Jav	-3515
SMP	-3516
▁5、	-3517
▁一些	-3518
▁一年	-3519
▁下午	-3520
▁中午	-3521
▁主要	-3522
▁只能	-3523
▁同学	-3524
▁天气	-3525
▁女生	-3526
▁而已	-3527
▁还要	-3528
▁重要	-3529
一系列	-3530
不容易	-3531
先进的	-3532
创始人	-3533
及相关	-3534
增加了	-3535
完成了	-3536
开始了	-3537
强大的	-3538
提高了	-3539
斯波洛	-3540
深冷箱	-3541
电视剧	-3542
电视台	-3543
的故事	-3544
的症状	-3545
的目标	-3546
等多个	-3547
类型的	-3548
该公司	-3549
适用于	-3550
陕西省	-3551
▁199	-3552
人力资源	-3553
积极开展	-3554
耶拿逻辑	-3555
静乐公主	-3556
发行股份购买资产	-3557
,3	-3558
3、	-3559
44	-3560
86	-3561
;“	-3562
AC	-3563
PS	-3564
ip	-3565
▁t	-3566
▁偷	-3567
▁够	-3568
▁工	-3569
▁抢	-3570
▁果	-3571
▁歌	-3572
▁油	-3573
▁演	-3574
▁烊	-3575
▁猪	-3576
▁神	-3577
▁诶	-3578
▁错	-3579
▁门	-3580
▁防	-3581
▁陈	-3582
▁首	-3583
▁骗	-3584
一场	-3585
一层	-3586
一条	-3587
上涨	-3588
不够	-3589
专科	-3590
中学	-3591
事务	-3592
代理	-3593
件的	-3594
优先	-3595
优良	-3596
低温	-3597
作文	-3598
依赖	-3599
修订	-3600
凝聚	-3601
切实	-3602
判断	-3603
利物	-3604
剧目	-3605
力度	-3606
半场	-3607
协作	-3608
单字	-3609
原煤	-3610
发明	-3611
司机	-3612
各大	-3613
合适	-3614
后缀	-3615
和平	-3616
噪声	-3617
回家	-3618
回收	-3619
图案	-3620
在人	-3621
在新	-3622
均价	-3623
块钱	-3624
增值	-3625
奇怪	-3626
奉献	-3627
安市	-3628
完美	-3629
宗旨	-3630
官网	-3631
定为	-3632
宝座	-3633
实用	-3634
实的	-3635
家居	-3636
宿舍	-3637
对待	-3638
小说	-3639
就有	-3640
展位	-3641
年年	-3642
引进	-3643
得分	-3644
想到	-3645
成了	-3646
才是	-3647
打开	-3648
批发	-3649
拉力	-3650
持有	-3651
描绘	-3652
描述	-3653
提示	-3654
搭配	-3655
放心	-3656
敬业	-3657
新一	-3658
新增	-3659
春节	-3660
最具	-3661
本书	-3662
权威	-3663
档案	-3664
气体	-3665
济州	-3666
犯罪	-3667
率为	-3668
环氧	-3669
电器	-3670
界的	-3671
病人	-3672
白城	-3673
的女	-3674
称号	-3675
签订	-3676
篮球	-3677
网片	-3678
美团	-3679
群体	-3680
肺炎	-3681
芥末	-3682
花卉	-3683
茶颜	-3684
获奖	-3685
菩萨	-3686
落后	-3687
被告	-3688
认知	-3689
试点	-3690
象征	-3691
负荷	-3692
较低	-3693
运作	-3694
这部	-3695
进展	-3696
都要	-3697
采购	-3698
释放	-3699
重复	-3700
防范	-3701
随时	-3702
隐私	-3703
隶属	-3704
雄鹿	-3705
颁奖	-3706
飞机	-3707
食用	-3708
高某	-3709
黄某	-3710
默默	-3711
URL	-3712
app	-3713
ind	-3714
▁Pr	-3715
▁其他	-3716
▁办法	-3717
▁国家	-3718
▁大概	-3719
▁新年	-3720
▁早安	-3721
▁有钱	-3722
▁本次	-3723
▁毕业	-3724
▁没错	-3725
▁活动	-3726
▁直接	-3727
▁表情	-3728
▁试试	-3729
▁难道	-3730
三七粉	-3731
主要是	-3732
九龙坡	-3733
了解到	-3734
优秀的	-3735
利物浦	-3736
办公楼	-3737
各部门	-3738
在哪里	-3739
在这个	-3740
多年来	-3741
工作中	-3742
市场上	-3743
情况下	-3744
是不是	-3745
是我们	-3746
智能化	-3747
有一些	-3748
比上周	-3749
比去年	-3750
比特币	-3751
比赛中	-3752
污染物	-3753
河南省	-3754
激烈的	-3755
煤化工	-3756
猕猴桃	-3757
的历史	-3758
的机会	-3759
的标准	-3760
的第一	-3761
的设备	-3762
稳定的	-3763
考虑到	-3764
英格兰	-3765
茶颜悦	-3766
钢结构	-3767
黑色素	-3768
2014	-3769
佣金收入	-3770
发行价格	-3771
我们可以	-3772
技术人员	-3773
密封圈标准	-3774
快速电波爆发	-3775
Panamera	-3776
%、	-3777
3%	-3778
52	-3779
62	-3780
69	-3781
Ch	-3782
IC	-3783
em	-3784
ii	-3785
pe	-3786
▁【	-3787
▁七	-3788
▁之	-3789
▁九	-3790
▁交	-3791
▁信	-3792
▁向	-3793
▁呦	-3794
▁奥	-3795
▁富	-3796
▁弄	-3797
▁机	-3798
▁碰	-3799
▁绝	-3800
▁背	-3801
▁金	-3802
▁非	-3803
▁额	-3804
一级	-3805
上了	-3806
上网	-3807
不及	-3808
不易	-3809
为例	-3810
为您	-3811
争取	-3812
云南	-3813
产权	-3814
仍在	-3815
仓储	-3816
以免	-3817
仲裁	-3818
伟大	-3819
传承	-3820
余人	-3821
借助	-3822
做了	-3823
全力	-3824
全民	-3825
公正	-3826
其次	-3827
养护	-3828
内地	-3829
再生	-3830
冬季	-3831
减轻	-3832
凤庆	-3833
凯恩	-3834
出发	-3835
出售	-3836
分散	-3837
初期	-3838
初步	-3839
力和	-3840
卓越	-3841
博物	-3842
卧式	-3843
原创	-3844
反射	-3845
受访	-3846
各界	-3847
合唱	-3848
名为	-3849
周期	-3850
因而	-3851
团膳	-3852
困扰	-3853
地域	-3854
坚决	-3855
大海	-3856
大陆	-3857
失望	-3858
奋斗	-3859
女孩	-3860
子里	-3861
存储	-3862
完整	-3863
实习	-3864
家族	-3865
容器	-3866
小孩	-3867
尝试	-3868
带动	-3869
年到	-3870
并购	-3871
幸运	-3872
廉政	-3873
引发	-3874
引用	-3875
张家	-3876
形势	-3877
志愿	-3878
情感	-3879
想象	-3880
成效	-3881
我院	-3882
房屋	-3883
手术	-3884
打印	-3885
排放	-3886
收费	-3887
放弃	-3888
日报	-3889
显得	-3890
更高	-3891
最新	-3892
有序	-3893
服装	-3894
期望	-3895
板块	-3896
标普	-3897
格林	-3898
框架	-3899
模拟	-3900
法院	-3901
活塞	-3902
流体	-3903
流动	-3904
济南	-3905
海报	-3906
润滑	-3907
涵盖	-3908
漫画	-3909
火车	-3910
焊接	-3911
特大	-3912
现状	-3913
珠宝	-3914
申报	-3915
申花	-3916
百万	-3917
的内	-3918
省份	-3919
短期	-3920
硬度	-3921
竞价	-3922
竟然	-3923
等待	-3924
红人	-3925
纪律	-3926
细节	-3927
给人	-3928
老年	-3929
职责	-3930
肚子	-3931
胜利	-3932
航天	-3933
草莓	-3934
荷兰	-3935
营造	-3936
蛇果	-3937
螺栓	-3938
血管	-3939
西部	-3940
解读	-3941
设有	-3942
识别	-3943
该剧	-3944
贩售	-3945
购物	-3946
起到	-3947
超出	-3948
身边	-3949
过于	-3950
过的	-3951
还会	-3952
这两	-3953
进程	-3954
违规	-3955
选手	-3956
通讯	-3957
道德	-3958
部位	-3959
重的	-3960
防疫	-3961
隔音	-3962
隧道	-3963
零件	-3964
青岛	-3965
面上	-3966
韦迪	-3967
20%	-3968
600	-3969
7%,	-3970
ISO	-3971
Kou	-3972
com	-3973
oll	-3974
▁19	-3975
▁一切	-3976
▁专业	-3977
▁便宜	-3978
▁分手	-3979
▁千玺	-3980
▁只要	-3981
▁可惜	-3982
▁同时	-3983
▁后来	-3984
▁周末	-3985
▁女人	-3986
▁女神	-3987
▁完全	-3988
▁容易	-3989
▁感情	-3990
▁有些	-3991
▁欢迎	-3992
▁深圳	-3993
▁过年	-3994
▁非常	-3995
一方面	-3996
不仅仅	-3997
个小时	-3998
中心的	-3999
今年的	-4000
克里斯	-4001
创业者	-4002
制造业	-4003
北京市	-4004
同时也	-4005
和发展	-4006
和技术	-4007
国家和	-4008
地区的	-4009
太阳能	-4010
孩子的	-4011
安徽省	-4012
广泛的	-4013
感兴趣	-4014
感受到	-4015
我们在	-4016
我公司	-4017
教育部	-4018
最重要	-4019
有可能	-4020
未来的	-4021
消声器	-4022
火锅店	-4023
的东西	-4024
的环境	-4025
的管理	-4026
的精神	-4027
这也是	-4028
长时间	-4029
黑龙江	-4030
Koum	-4031
ower	-4032
万平方米	-4033
九龙坡区	-4034
事业单位	-4035
外环高速	-4036
女研究生	-4037
平安租赁	-4038
建筑材料	-4039
洋河股份	-4040
的基础上	-4041
科学研究	-4042
ation	-4043
格林斯波洛	-4044
生态系统的	-4045
(7	-4046
,5	-4047
49	-4048
66	-4049
79	-4050
83	-4051
CO	-4052
DA	-4053
og	-4054
▁元	-4055
▁卡	-4056
▁山	-4057
▁床	-4058
▁待	-4059
▁惊	-4060
▁成	-4061
▁抓	-4062
▁拖	-4063
▁拜	-4064
▁指	-4065
▁流	-4066
▁烤	-4067
▁班	-4068
▁甜	-4069
▁由	-4070
▁累	-4071
▁网	-4072
▁脚	-4073
▁腿	-4074
▁跳	-4075
▁风	-4076
▁食	-4077
一件	-4078
一周	-4079
一无	-4080
一期	-4081
一线	-4082
一项	-4083
万台	-4084
不见	-4085
人不	-4086
仅供	-4087
他人	-4088
付款	-4089
付费	-4090
以往	-4091
仪表	-4092
传播	-4093
依靠	-4094
修复	-4095
健身	-4096
光线	-4097
全方	-4098
公分	-4099
关联	-4100
兵团	-4101
兼任	-4102
决赛	-4103
凌晨	-4104
出去	-4105
分泌	-4106
前来	-4107
动画	-4108
协商	-4109
卧室	-4110
厚度	-4111
口碑	-4112
各级	-4113
各自	-4114
吐槽	-4115
否则	-4116
吹填	-4117
喷头	-4118
回归	-4119
地上	-4120
塑胶	-4121
外交	-4122
外部	-4123
多了	-4124
多家	-4125
大师	-4126
天灼	-4127
天的	-4128
孵化	-4129
宇宙	-4130
宏观	-4131
定义	-4132
实地	-4133
导向	-4134
导师	-4135
就不	-4136
就要	-4137
州市	-4138
年前	-4139
年华	-4140
庆祝	-4141
延续	-4142
开心	-4143
弥陀	-4144
强力	-4145
形容	-4146
影视	-4147
性好	-4148
总部	-4149
户外	-4150
打破	-4151
拍摄	-4152
挫折	-4153
捐款	-4154
捐赠	-4155
排除	-4156
支部	-4157
收益	-4158
救助	-4159
文本	-4160
新建	-4161
无疑	-4162
日的	-4163
日至	-4164
暂停	-4165
最初	-4166
有时	-4167
本质	-4168
权利	-4169
权益	-4170
查看	-4171
校企	-4172
格丽	-4173
欧美	-4174
此时	-4175
每次	-4176
民众	-4177
氛围	-4178
水产	-4179
沿海	-4180
法的	-4181
潜力	-4182
热情	-4183
物品	-4184
率先	-4185
现货	-4186
理事	-4187
瑞典	-4188
电商	-4189
电机	-4190
疫苗	-4191
的开	-4192
的生	-4193
看着	-4194
眼科	-4195
磨损	-4196
精确	-4197
编排	-4198
缩短	-4199
罚款	-4200
美丽	-4201
联储	-4202
能在	-4203
节油	-4204
若干	-4205
荣获	-4206
融入	-4207
西北	-4208
西方	-4209
见证	-4210
警报	-4211
课堂	-4212
课题	-4213
走向	-4214
跨境	-4215
车型	-4216
软管	-4217
这也	-4218
选用	-4219
那样	-4220
邮政	-4221
钕铁	-4222
错误	-4223
阀门	-4224
隐患	-4225
隐藏	-4226
难以	-4227
难题	-4228
集体	-4229
面板	-4230
1.4	-4231
1.5	-4232
190	-4233
2.5	-4234
gle	-4235
ner	-4236
▁50	-4237
▁In	-4238
▁上去	-4239
▁之后	-4240
▁今晚	-4241
▁估计	-4242
▁到底	-4243
▁大学	-4244
▁如何	-4245
▁安慰	-4246
▁就要	-4247
▁微波	-4248
▁或者	-4249
▁才能	-4250
▁明明	-4251
▁样子	-4252
▁武汉	-4253
▁每次	-4254
▁男人	-4255
▁终于	-4256
▁衣服	-4257
▁那天	-4258
为公司	-4259
为客户	-4260
也不能	-4261
了一些	-4262
伴随着	-4263
体现了	-4264
关系的	-4265
内蒙古	-4266
出来的	-4267
区块链	-4268
发生了	-4269
取得了	-4270
受欢迎	-4271
品牌的	-4272
土工膜	-4273
在北京	-4274
大学的	-4275
平台上	-4276
广东省	-4277
建筑业	-4278
成立于	-4279
更容易	-4280
有哪些	-4281
烤鸭饼	-4282
热刺队	-4283
生产的	-4284
生活的	-4285
的交流	-4286
的作品	-4287
的所有	-4288
的结构	-4289
的项目	-4290
等问题	-4291
综合性	-4292
美国的	-4293
而不是	-4294
董事会	-4295
要求的	-4296
观众们	-4297
较强的	-4298
较高的	-4299
达到了	-4300
这就是	-4301
采用了	-4302
钕铁硼	-4303
黑名单	-4304
2005	-4305
Java	-4306
OLED	-4307
ling	-4308
▁KOL	-4309
中小企业	-4310
发展趋势	-4311
安全生产	-4312
就业前景	-4313
居住建筑	-4314
快速发展	-4315
报告显示	-4316
担保机构	-4317
橡胶制品	-4318
燃料电池	-4319
物业管理	-4320
的过程中	-4321
知识产权	-4322
研究中心	-4323
竞价排名	-4324
茶颜悦色	-4325
行政处罚	-4326
金刚宝座	-4327
集成电路	-4328
招投标管理	-4329
环境保护税	-4330
白癜风患者	-4331
发行股份购买资产的	-4332
!”	-4333
1)	-4334
39	-4335
AM	-4336
AS	-4337
EL	-4338
Si	-4339
ev	-4340
if	-4341
ub	-4342
”;	-4343
▁J	-4344
▁c	-4345
▁p	-4346
▁–	-4347
▁何	-4348
▁入	-4349
▁关	-4350
▁冰	-4351
▁喔	-4352
▁如	-4353
▁急	-4354
▁晓	-4355
▁李	-4356
▁欺	-4357
▁消	-4358
▁牛	-4359
▁特	-4360
▁瞎	-4361
▁站	-4362
▁胡	-4363
▁萌	-4364
▁装	-4365
▁谈	-4366
▁豆	-4367
▁选	-4368
▁预	-4369
▁鬼	-4370
一份	-4371
一是	-4372
万达	-4373
上下	-4374
上去	-4375
上面	-4376
不受	-4377
不如	-4378
不知	-4379
专题	-4380
东莞	-4381
丢失	-4382
严谨	-4383
主机	-4384
乡村	-4385
书籍	-4386
事故	-4387
二是	-4388
二次	-4389
产后	-4390
人生	-4391
会展	-4392
体质	-4393
作家	-4394
供给	-4395
依托	-4396
保留	-4397
充足	-4398
光环	-4399
免疫	-4400
共产	-4401
关爱	-4402
几天	-4403
出台	-4404
出行	-4405
切割	-4406
剧院	-4407
十五	-4408
厦门	-4409
去看	-4410
反馈	-4411
变革	-4412
可是	-4413
可爱	-4414
各位	-4415
合伙	-4416
名的	-4417
名称	-4418
呼吸	-4419
四氟	-4420
园林	-4421
国产	-4422
圆形	-4423
圆满	-4424
增进	-4425
增速	-4426
处置	-4427
夏季	-4428
大约	-4429
天下	-4430
天文	-4431
太多	-4432
奶茶	-4433
婚纱	-4434
学者	-4435
宿根	-4436
对其	-4437
将被	-4438
小组	-4439
尚未	-4440
就在	-4441
就好	-4442
巨头	-4443
常态	-4444
平时	-4445
强大	-4446
得以	-4447
总裁	-4448
愉快	-4449
意间	-4450
扩展	-4451
拉开	-4452
拉松	-4453
损伤	-4454
接到	-4455
提交	-4456
文华	-4457
新鲜	-4458
无限	-4459
日子	-4460
早已	-4461
普陀	-4462
景点	-4463
有点	-4464
本土	-4465
本来	-4466
查询	-4467
模块	-4468
每日	-4469
水质	-4470
江苏	-4471
洗手	-4472
洛杉	-4473
海南	-4474
渐变	-4475
渗透	-4476
热门	-4477
班牙	-4478
用人	-4479
电气	-4480
登场	-4481
白色	-4482
的信	-4483
的花	-4484
相似	-4485
相反	-4486
相左	-4487
真是	-4488
真空	-4489
眼睛	-4490
磨石	-4491
移民	-4492
立刻	-4493
等奖	-4494
签约	-4495
紧密	-4496
纺织	-4497
细化	-4498
终止	-4499
羊膜	-4500
考察	-4501
而在	-4502
胶原	-4503
腾讯	-4504
舒服	-4505
茶饮	-4506
草原	-4507
蚂蚁	-4508
行了	-4509
装备	-4510
褐斑	-4511
西路	-4512
要想	-4513
观点	-4514
视力	-4515
解答	-4516
让我	-4517
讲座	-4518
评选	-4519
诉讼	-4520
财富	-4521
起了	-4522
起源	-4523
转移	-4524
轮毂	-4525
辈子	-4526
输出	-4527
过来	-4528
还可	-4529
还将	-4530
这场	-4531
远程	-4532
违约	-4533
遵守	-4534
郭永	-4535
钢管	-4536
防治	-4537
面前	-4538
顶尖	-4539
饰演	-4540
首席	-4541
马上	-4542
马斯	-4543
高考	-4544
1.7	-4545
10.	-4546
23.	-4547
4.9	-4548
42.	-4549
:30	-4550
all	-4551
ard	-4552
ord	-4553
▁11	-4554
▁12	-4555
▁17	-4556
▁25	-4557
▁30	-4558
▁of	-4559
▁下来	-4560
▁人生	-4561
▁关键	-4562
▁所有	-4563
▁放弃	-4564
▁旅游	-4565
▁未来	-4566
▁正在	-4567
▁然而	-4568
▁看过	-4569
▁简介	-4570
▁继续	-4571
▁联系	-4572
▁随便	-4573
一个月	-4574
一样的	-4575
中小学	-4576
为主题	-4577
为企业	-4578
了很多	-4579
体育场	-4580
保健品	-4581
创新的	-4582
制造商	-4583
原材料	-4584
受访者	-4585
同学们	-4586
和管理	-4587
喜欢的	-4588
基础上	-4589
多功能	-4590
天津市	-4591
天然气	-4592
好后缀	-4593
学院的	-4594
实现了	-4595
实验室	-4596
对企业	-4597
工业管	-4598
常见的	-4599
幸福感	-4600
废水的	-4601
建筑物	-4602
必要的	-4603
所需的	-4604
时代的	-4605
来源于	-4606
活动的	-4607
游乐园	-4608
游戏的	-4609
特高压	-4610
独孤氏	-4611
的一年	-4612
的价格	-4613
的信息	-4614
的健康	-4615
的公司	-4616
的关键	-4617
的力量	-4618
的品牌	-4619
的国家	-4620
的治疗	-4621
的表现	-4622
被调查	-4623
设计的	-4624
谢克昌	-4625
进出口	-4626
防腐剂	-4627
阿弥陀	-4628
马拉松	-4629
2004	-4630
▁到时候	-4631
▁怎么办	-4632
▁是因为	-4633
不断提高	-4634
中华民族	-4635
人工智能	-4636
创业投资	-4637
另一方面	-4638
合作伙伴	-4639
国家安全	-4640
学前儿童	-4641
日常生活	-4642
生产厂家	-4643
生态系统	-4644
疫情防控	-4645
空气净化	-4646
管理部门	-4647
组成部分	-4648
羊膜穿刺	-4649
美团外卖	-4650
胶原蛋白	-4651
装饰材料	-4652
负面清单	-4653
责任公司	-4654
香港国安	-4655
,2020	-4656
ocker	-4657
▁2017	-4658
比去年同期	-4659
毕业生就业	-4660
现代煤化工	-4661
国家公园体制	-4662
发行股份购买资产的发行价格	-4663
2)	-4664
46	-4665
48	-4666
81	-4667
89	-4668
ew	-4669
ey	-4670
▁N	-4671
▁V	-4672
▁s	-4673
▁丑	-4674
▁冒	-4675
▁卷	-4676
▁呆	-4677
▁围	-4678
▁圣	-4679
▁夜	-4680
▁嫌	-4681
▁尽	-4682
▁怀	-4683
▁怪	-4684
▁懒	-4685
▁报	-4686
▁暖	-4687
▁皮	-4688
▁直	-4689
▁认	-4690
▁降	-4691
▁鸡	-4692
一只	-4693
一同	-4694
一段	-4695
一道	-4696
三种	-4697
下跌	-4698
不上	-4699
不久	-4700
不太	-4701
专属	-4702
严寒	-4703
严禁	-4704
之际	-4705
也很	-4706
五代	-4707
仅次	-4708
付出	-4709
会儿	-4710
伦斯	-4711
位居	-4712
位移	-4713
低碳	-4714
依旧	-4715
保密	-4716
光学	-4717
光滑	-4718
公民	-4719
共计	-4720
关闭	-4721
典礼	-4722
决心	-4723
出降	-4724
切尔	-4725
刘涛	-4726
加密	-4727
动的	-4728
北方	-4729
十大	-4730
单独	-4731
占有	-4732
印鉴	-4733
厚的	-4734
受理	-4735
变频	-4736
古典	-4737
可见	-4738
合成	-4739
名校	-4740
后卫	-4741
向上	-4742
含量	-4743
告知	-4744
噪音	-4745
回头	-4746
固体	-4747
国药	-4748
地理	-4749
墙体	-4750
增持	-4751
处女	-4752
多彩	-4753
大专	-4754
大虾	-4755
太大	-4756
好吃	-4757
娃娃	-4758
孕妇	-4759
孤独	-4760
学子	-4761
安县	-4762
宝藏	-4763
实时	-4764
审查	-4765
审计	-4766
家中	-4767
容量	-4768
对手	-4769
小区	-4770
小幅	-4771
少的	-4772
尔滨	-4773
层面	-4774
年在	-4775
并在	-4776
建造	-4777
开拓	-4778
开花	-4779
引擎	-4780
彩电	-4781
影像	-4782
总量	-4783
恐怖	-4784
意外	-4785
感的	-4786
我是	-4787
承受	-4788
技巧	-4789
担当	-4790
拉伸	-4791
招生	-4792
指挥	-4793
授予	-4794
排水	-4795
携手	-4796
摆线	-4797
支援	-4798
收款	-4799
改进	-4800
斯坦	-4801
新高	-4802
旁边	-4803
早餐	-4804
暴力	-4805
更有	-4806
最为	-4807
最早	-4808
有力	-4809
木鱼	-4810
本期	-4811
杂志	-4812
条款	-4813
板材	-4814
柠檬	-4815
校区	-4816
森林	-4817
欣赏	-4818
此后	-4819
每月	-4820
比亚	-4821
水头	-4822
永恒	-4823
油耗	-4824
泰国	-4825
流的	-4826
浮雕	-4827
海岸	-4828
液体	-4829
液压	-4830
烘干	-4831
烙馍	-4832
烧结	-4833
爷爷	-4834
生素	-4835
的功	-4836
的首	-4837
皮炎	-4838
监察	-4839
监控	-4840
瞬间	-4841
研制	-4842
碳化	-4843
磨刀	-4844
神秘	-4845
神马	-4846
种植	-4847
秘书	-4848
秘密	-4849
税务	-4850
税收	-4851
立群	-4852
竞技	-4853
竞赛	-4854
第七	-4855
类别	-4856
粽子	-4857
红色	-4858
约为	-4859
线圈	-4860
细腻	-4861
细致	-4862
绿化	-4863
绿城	-4864
网页	-4865
肾炎	-4866
肿瘤	-4867
荞麦	-4868
血液	-4869
观念	-4870
警察	-4871
订单	-4872
让你	-4873
设定	-4874
证实	-4875
说法	-4876
请求	-4877
读书	-4878
财产	-4879
走在	-4880
跑步	-4881
路线	-4882
违反	-4883
钢丝	-4884
锻炼	-4885
长江	-4886
防火	-4887
阿普	-4888
除此	-4889
青睐	-4890
高频	-4891
鸡精	-4892
,19	-4893
2%。	-4894
400	-4895
Mar	-4896
NBA	-4897
ear	-4898
ell	-4899
ers	-4900
fie	-4901
ine	-4902
ore	-4903
ype	-4904
▁16	-4905
▁5.	-4906
▁下雨	-4907
▁不怕	-4908
▁其中	-4909
▁另外	-4910
▁咱们	-4911
▁基本	-4912
▁大叔	-4913
▁如此	-4914
▁就算	-4915
▁忘记	-4916
▁恋爱	-4917
▁晓得	-4918
▁比如	-4919
▁毕竟	-4920
▁没人	-4921
▁男生	-4922
▁相信	-4923
▁眼睛	-4924
▁睡不	-4925
▁竟然	-4926
▁简直	-4927
▁经常	-4928
▁绝对	-4929
▁认识	-4930
▁讨厌	-4931
▁辛苦	-4932
▁重庆	-4933
▁马上	-4934
▁高考	-4935
一直在	-4936
一起来	-4937
一部分	-4938
与中国	-4939
严重的	-4940
为基础	-4941
充电器	-4942
全自动	-4943
减少了	-4944
减速机	-4945
利亚德	-4946
受到了	-4947
可持续	-4948
和软件	-4949
在其中	-4950
增长率	-4951
处理的	-4952
大规模	-4953
完成后	-4954
小故事	-4955
已完成	-4956
年轻人	-4957
建立了	-4958
我们要	-4959
护肤品	-4960
新加坡	-4961
旗下的	-4962
是一部	-4963
机喷头	-4964
标准化	-4965
水资源	-4966
洛杉矶	-4967
的不同	-4968
的人生	-4969
的学生	-4970
的建筑	-4971
的投资	-4972
的未来	-4973
的核心	-4974
的目的	-4975
的过程	-4976
相结合	-4977
等行业	-4978
管理局	-4979
美联储	-4980
老年人	-4981
背景下	-4982
能力和	-4983
能够让	-4984
自治区	-4985
自然的	-4986
自行车	-4987
著名的	-4988
质量和	-4989
较大的	-4990
选择了	-4991
都没有	-4992
集中在	-4993
风格的	-4994
高新区	-4995
2006	-4996
3000	-4997
5000	-4998
uper	-4999
▁好久没	-5000
了解一下	-5001
传统体育	-5002
使用寿命	-5003
克里斯蒂	-5004
党史学习	-5005
党委书记	-5006
全体员工	-5007
养老金融	-5008
告诉记者	-5009
商务英语	-5010
国家宝藏	-5011
在线课程	-5012
宿根花卉	-5013
少年儿童	-5014
已经成为	-5015
市场竞争	-5016
投资基金	-5017
校园文化	-5018
污水处理	-5019
注意的是	-5020
用人单位	-5021
科技创新	-5022
网络推广	-5023
网络红人	-5024
行业协会	-5025
这是一个	-5026
除此之外	-5027
oogle	-5028
▁新年快乐	-5029
互联网广告	-5030
大学出版社	-5031
肾炎的症状	-5032
香港国安法	-5033
ollfie	-5034
在校女研究生	-5035
实现营业收入	-5036
有限责任公司	-5037
耀华国际教育	-5038
--------	-5039
▁中药资源与开发专业	-5040
1/	-5041
3-	-5042
MB	-5043
ay	-5044
ee	-5045
kg	-5046
ob	-5047
xp	-5048
▁*	-5049
▁乐	-5050
▁书	-5051
▁乱	-5052
▁剧	-5053
▁动	-5054
▁吹	-5055
▁喂	-5056
▁度	-5057
▁恨	-5058
▁排	-5059
▁接	-5060
▁提	-5061
▁整	-5062
▁斤	-5063
▁炒	-5064
▁烦	-5065
▁百	-5066
▁脑	-5067
▁蛋	-5068
▁裙	-5069
▁通	-5070
▁配	-5071
▁龙	-5072
、3	-5073
、5	-5074
。5	-5075
一批	-5076
一支	-5077
万人	-5078
万千	-5079
三月	-5080
三环	-5081
上线	-5082
不但	-5083
不准	-5084
不变	-5085
不对	-5086
两大	-5087
两天	-5088
主管	-5089
举措	-5090
之为	-5091
之地	-5092
也可	-5093
书架	-5094
人与	-5095
人事	-5096
仅有	-5097
以外	-5098
们的	-5099
份额	-5100
优惠	-5101
优越	-5102
会使	-5103
传输	-5104
伸长	-5105
伺服	-5106
但他	-5107
低价	-5108
体内	-5109
体积	-5110
供暖	-5111
供需	-5112
依法	-5113
依照	-5114
促销	-5115
修行	-5116
值的	-5117
像是	-5118
共和	-5119
共建	-5120
具的	-5121
写真	-5122
出色	-5123
初创	-5124
利斯	-5125
前提	-5126
前进	-5127
剧种	-5128
剧集	-5129
勇敢	-5130
勇气	-5131
北路	-5132
医师	-5133
十四	-5134
华严	-5135
华社	-5136
华经	-5137
单箱	-5138
南京	-5139
南方	-5140
印象	-5141
原本	-5142
去除	-5143
参会	-5144
发售	-5145
发育	-5146
发达	-5147
发音	-5148
口感	-5149
可达	-5150
各有	-5151
同胞	-5152
启发	-5153
和解	-5154
嘉宾	-5155
器械	-5156
回报	-5157
土地	-5158
土壤	-5159
场景	-5160
型号	-5161
填料	-5162
增添	-5163
声明	-5164
大气	-5165
失去	-5166
头部	-5167
好了	-5168
审视	-5169
宪德	-5170
害虫	-5171
射门	-5172
小微	-5173
局部	-5174
屏幕	-5175
工商	-5176
巴萨	-5177
巴西	-5178
并未	-5179
广阔	-5180
废气	-5181
建工	-5182
强劲	-5183
当场	-5184
彻底	-5185
忘记	-5186
态势	-5187
思路	-5188
慰问	-5189
我想	-5190
扎实	-5191
扩建	-5192
扩散	-5193
抓住	-5194
持股	-5195
挖掘	-5196
损害	-5197
提取	-5198
搞笑	-5199
擅长	-5200
收获	-5201
故障	-5202
数十	-5203
新城	-5204
旅馆	-5205
无毒	-5206
无需	-5207
日电	-5208
明白	-5209
星级	-5210
是用	-5211
暴风	-5212
服用	-5213
本届	-5214
本文	-5215
朵夫	-5216
条码	-5217
极为	-5218
极大	-5219
某个	-5220
标杆	-5221
格莱	-5222
桂林	-5223
次数	-5224
欢乐	-5225
死亡	-5226
汪伟	-5227
油漆	-5228
波动	-5229
洗碗	-5230
洛阳	-5231
活性	-5232
淮剧	-5233
清水	-5234
潜在	-5235
潮湿	-5236
火力	-5237
照顾	-5238
现金	-5239
球场	-5240
理由	-5241
生涯	-5242
生源	-5243
用品	-5244
用量	-5245
疗法	-5246
疲劳	-5247
的上	-5248
的诗	-5249
盐埕	-5250
码头	-5251
确认	-5252
私募	-5253
秉承	-5254
程式	-5255
稳步	-5256
究竟	-5257
红柿	-5258
纪录	-5259
纳斯	-5260
纺布	-5261
纽约	-5262
给了	-5263
维度	-5264
缓解	-5265
编辑	-5266
美食	-5267
考研	-5268
考验	-5269
聚焦	-5270
育人	-5271
脱贫	-5272
艺人	-5273
花费	-5274
英镑	-5275
获胜	-5276
虚拟	-5277
街道	-5278
西游	-5279
观测	-5280
规章	-5281
视角	-5282
论是	-5283
试图	-5284
语音	-5285
谨慎	-5286
贝尔	-5287
负担	-5288
质感	-5289
赞助	-5290
身上	-5291
输送	-5292
达成	-5293
近些	-5294
还能	-5295
这件	-5296
这位	-5297
这项	-5298
适用	-5299
速率	-5300
道理	-5301
遵循	-5302
邮编	-5303
钢筋	-5304
锅具	-5305
镦机	-5306
门店	-5307
间的	-5308
队长	-5309
阿姨	-5310
阿里	-5311
隔热	-5312
颁发	-5313
频道	-5314
风景	-5315
首位	-5316
香果	-5317
骄傲	-5318
验证	-5319
高原	-5320
4%。	-5321
8%,	-5322
:10	-5323
ang	-5324
ity	-5325
ive	-5326
▁6、	-5327
▁St	-5328
▁上次	-5329
▁下去	-5330
▁下面	-5331
▁了解	-5332
▁仙女	-5333
▁以上	-5334
▁企业	-5335
▁出门	-5336
▁别的	-5337
▁华富	-5338
▁可怜	-5339
▁各种	-5340
▁后悔	-5341
▁哎呀	-5342
▁妈妈	-5343
▁当时	-5344
▁快点	-5345
▁打算	-5346
▁担心	-5347
▁推荐	-5348
▁支持	-5349
▁早就	-5350
▁早点	-5351
▁昨晚	-5352
▁梦想	-5353
▁欺负	-5354
▁永远	-5355
▁研究	-5356
▁祝福	-5357
▁老公	-5358
▁老实	-5359
▁自动	-5360
▁裙子	-5361
▁要求	-5362
▁赶紧	-5363
▁这次	-5364
▁适合	-5365
▁那边	-5366
▁里面	-5367
一季度	-5368
一年的	-5369
不得不	-5370
不错的	-5371
与管理	-5372
世界杯	-5373
丙氨酸	-5374
个篮板	-5375
举办的	-5376
举行的	-5377
产生的	-5378
人们的	-5379
你可以	-5380
光环视	-5381
全新的	-5382
公分高	-5383
共产党	-5384
切尔西	-5385
博物馆	-5386
参加了	-5387
变成了	-5388
可分为	-5389
合唱了	-5390
哪个区	-5391
回答说	-5392
城市的	-5393
处女座	-5394
多年的	-5395
它可以	-5396
官方网	-5397
将继续	-5398
尤伦斯	-5399
平台的	-5400
开发和	-5401
张家界	-5402
形成的	-5403
徐宪德	-5404
成公主	-5405
成果奖	-5406
我们就	-5407
我希望	-5408
或其他	-5409
才可以	-5410
提出的	-5411
教育局	-5412
教育的	-5413
是一次	-5414
格莱美	-5415
水泥板	-5416
深圳市	-5417
的一些	-5418
的不断	-5419
的声音	-5420
的建设	-5421
的最后	-5422
的现象	-5423
的用户	-5424
的结果	-5425
皮肤病	-5426
碳纤维	-5427
科学家	-5428
称之为	-5429
端午节	-5430
等工作	-5431
经意间	-5432
结合剂	-5433
腐蚀性	-5434
薇薇安	-5435
西班牙	-5436
设计与	-5437
金立群	-5438
陈天灼	-5439
黄褐斑	-5440
oore	-5441
▁Mar	-5442
▁女朋友	-5443
▁据了解	-5444
▁第一次	-5445
▁越来越	-5446
世界各地	-5447
中国企业	-5448
主体责任	-5449
产品质量	-5450
兵团建工	-5451
其中包括	-5452
哪个城市	-5453
售后服务	-5454
基因芯片	-5455
大隈公司	-5456
我的世界	-5457
技术专业	-5458
技术研发	-5459
教育活动	-5460
智慧城市	-5461
期货交易	-5462
校企合作	-5463
楼宇经济	-5464
每个人都	-5465
比上周末	-5466
生命密码	-5467
自由选择	-5468
蓝色关爱	-5469
蚂蚁花呗	-5470
被调查者	-5471
资本市场	-5472
起重机的	-5473
身体健康	-5474
镦机行业	-5475
高新技术	-5476
,2012	-5477
urner	-5478
▁....	-5479
▁2019	-5480
克里斯蒂安	-5481
地址在哪里	-5482
复合土工膜	-5483
工业废水的	-5484
幸福感城市	-5485
植物性皮炎	-5486
的使用寿命	-5487
越来越多的	-5488
黑格尔哲学	-5489
兵团建工集团	-5490
收购北新渝长	-5491
羊水基因芯片	-5492
证券投资基金	-5493
最具幸福感城市	-5494
格林斯波洛分校	-5495
%)	-5496
):	-5497
06	-5498
3》	-5499
4%	-5500
4-	-5501
5)	-5502
57	-5503
67	-5504
73	-5505
82	-5506
GB	-5507
GO	-5508
IT	-5509
MP	-5510
Pr	-5511
Qu	-5512
TR	-5513
WB	-5514
ab	-5515
af	-5516
ag	-5517
vX	-5518
▁'	-5519
▁—	-5520
▁丢	-5521
▁低	-5522
▁冬	-5523
▁凉	-5524
▁却	-5525
▁吐	-5526
▁团	-5527
▁坏	-5528
▁妖	-5529
▁寂	-5530
▁市	-5531
▁往	-5532
▁戏	-5533
▁按	-5534
▁摆	-5535
▁敢	-5536
▁暴	-5537
▁汉	-5538
▁江	-5539
▁泡	-5540
▁烧	-5541
▁爆	-5542
▁病	-5543
▁秀	-5544
▁空	-5545
▁签	-5546
▁粗	-5547
▁精	-5548
▁苦	-5549
▁莫	-5550
▁贵	-5551
▁逗	-5552
▁醒	-5553
▁雨	-5554
▁零	-5555
▁鞋	-5556
▁音	-5557
▁颜	-5558
▁魔	-5559
▁鸭	-5560
一半	-5561
一句	-5562
一带	-5563
一张	-5564
一行	-5565
三人	-5566
三星	-5567
上映	-5568
下方	-5569
不想	-5570
不来	-5571
不然	-5572
两次	-5573
中型	-5574
义务	-5575
之旅	-5576
乳腺	-5577
争论	-5578
亏损	-5579
互相	-5580
交叉	-5581
亮点	-5582
人家	-5583
人性	-5584
介质	-5585
从中	-5586
以此	-5587
会对	-5588
会给	-5589
传动	-5590
但却	-5591
作出	-5592
便利	-5593
信条	-5594
候选	-5595
借鉴	-5596
值班	-5597
党风	-5598
入学	-5599
入驻	-5600
共有	-5601
养成	-5602
内心	-5603
凭证	-5604
列为	-5605
列入	-5606
刚玉	-5607
初心	-5608
利通	-5609
别的	-5610
制成	-5611
制约	-5612
刷票	-5613
前列	-5614
动员	-5615
十字	-5616
华盛	-5617
单纯	-5618
历程	-5619
参展	-5620
双选	-5621
司马	-5622
合并	-5623
同事	-5624
同志	-5625
名人	-5626
听到	-5627
吸附	-5628
唤醒	-5629
善于	-5630
器的	-5631
团结	-5632
在外	-5633
地亚	-5634
地藏	-5635
场合	-5636
均衡	-5637
型和	-5638
填写	-5639
墙面	-5640
壮大	-5641
复苏	-5642
多人	-5643
多项	-5644
大使	-5645
奥运	-5646
女士	-5647
女生	-5648
好好	-5649
好评	-5650
子女	-5651
字楼	-5652
孙悦	-5653
守护	-5654
宝宝	-5655
实在	-5656
宠物	-5657
室外	-5658
对比	-5659
对立	-5660
射手	-5661
小于	-5662
小学	-5663
尹恩	-5664
层的	-5665
展望	-5666
巩固	-5667
布斯	-5668
布置	-5669
带头	-5670
帮扶	-5671
平稳	-5672
年间	-5673
并将	-5674
并非	-5675
库蒂	-5676
座谈	-5677
延长	-5678
建于	-5679
建材	-5680
开关	-5681
开幕	-5682
弯曲	-5683
当下	-5684
征收	-5685
得多	-5686
微波	-5687
微软	-5688
心态	-5689
心里	-5690
必然	-5691
快本	-5692
快递	-5693
怀疑	-5694
性地	-5695
想法	-5696
感冒	-5697
戒指	-5698
战争	-5699
手法	-5700
执法	-5701
扫描	-5702
扭矩	-5703
承办	-5704
承载	-5705
抛光	-5706
报导	-5707
损坏	-5708
插画	-5709
改编	-5710
放缓	-5711
效应	-5712
散热	-5713
新星	-5714
日在	-5715
旨在	-5716
早上	-5717
明天	-5718
星期	-5719
是从	-5720
是很	-5721
晚会	-5722
智力	-5723
更改	-5724
最多	-5725
月底	-5726
月的	-5727
杜江	-5728
极其	-5729
标记	-5730
样本	-5731
案件	-5732
梦想	-5733
检修	-5734
楼阁	-5735
民营	-5736
沿线	-5737
浪费	-5738
消耗	-5739
液晶	-5740
深受	-5741
温暖	-5742
渴望	-5743
湿度	-5744
溶剂	-5745
熬夜	-5746
燃烧	-5747
现行	-5748
珍惜	-5749
生育	-5750
甲级	-5751
电源	-5752
电缆	-5753
男女	-5754
疑惑	-5755
疑问	-5756
病例	-5757
的三	-5758
的无	-5759
的有	-5760
的气	-5761
的老	-5762
的耐	-5763
的自	-5764
目光	-5765
相处	-5766
省市	-5767
着力	-5768
砝码	-5769
禁令	-5770
禁区	-5771
私人	-5772
科创	-5773
税额	-5774
站的	-5775
竣工	-5776
等地	-5777
筛选	-5778
管制	-5779
系数	-5780
纳入	-5781
考生	-5782
而不	-5783
而成	-5784
耳朵	-5785
股价	-5786
背后	-5787
至关	-5788
花境	-5789
花瓷	-5790
若是	-5791
英里	-5792
莱纳	-5793
获悉	-5794
规律	-5795
试题	-5796
诠释	-5797
财税	-5798
起步	-5799
起点	-5800
跑者	-5801
车棚	-5802
转向	-5803
较长	-5804
过后	-5805
进而	-5806
道具	-5807
遭遇	-5808
邻居	-5809
都能	-5810
配件	-5811
钻石	-5812
门口	-5813
阿尔	-5814
阿拉	-5815
陌生	-5816
院士	-5817
随意	-5818
雄厚	-5819
非凡	-5820
首发	-5821
首页	-5822
鱼类	-5823
鲜艳	-5824
12.	-5825
50%	-5826
800	-5827
Chr	-5828
LED	-5829
are	-5830
ill	-5831
ite	-5832
lah	-5833
▁一张	-5834
▁保护	-5835
▁再见	-5836
▁出现	-5837
▁单身	-5838
▁可怕	-5839
▁坚持	-5840
▁如今	-5841
▁宿舍	-5842
▁小心	-5843
▁山东	-5844
▁平时	-5845
▁应用	-5846
▁很快	-5847
▁心里	-5848
▁总是	-5849
▁感冒	-5850
▁感谢	-5851
▁成为	-5852
▁敬业	-5853
▁有个	-5854
▁杭州	-5855
▁照顾	-5856
▁理解	-5857
▁申请	-5858
▁电子	-5859
▁第三	-5860
▁考研	-5861
▁考试	-5862
▁肚子	-5863
▁节目	-5864
▁表白	-5865
▁表示	-5866
▁身材	-5867
▁那里	-5868
▁阿姨	-5869
▁难受	-5870
▁飞机	-5871
一无二	-5872
下一步	-5873
不存在	-5874
两个人	-5875
严寒和	-5876
中山路	-5877
为大家	-5878
为核心	-5879
之一的	-5880
乳制品	-5881
传统式	-5882
作品的	-5883
保持在	-5884
克斯坦	-5885
共和国	-5886
典型的	-5887
动物的	-5888
化学品	-5889
华盛顿	-5890
可以说	-5891
司马迁	-5892
各样的	-5893
和基本	-5894
和草原	-5895
在未来	-5896
大都市	-5897
存在着	-5898
完善的	-5899
宝格丽	-5900
尹恩惠	-5901
山东省	-5902
已经在	-5903
广东队	-5904
应用在	-5905
引起了	-5906
必须要	-5907
我们将	-5908
技术和	-5909
旗舰店	-5910
无论是	-5911
时间内	-5912
暴风眼	-5913
更高的	-5914
最新的	-5915
有没有	-5916
此同时	-5917
法华经	-5918
洋河班	-5919
湖北省	-5920
特殊的	-5921
环境的	-5922
生活费	-5923
用户的	-5924
白羊男	-5925
的人员	-5926
的位置	-5927
的区别	-5928
的可能	-5929
的合作	-5930
的味道	-5931
的广告	-5932
的应用	-5933
的形式	-5934
的感觉	-5935
的概念	-5936
的特点	-5937
的电影	-5938
的资料	-5939
目的是	-5940
确定性	-5941
碳化硅	-5942
磨刀石	-5943
社会的	-5944
离不开	-5945
程度的	-5946
管接头	-5947
结束后	-5948
结构的	-5949
给自己	-5950
维生素	-5951
综合体	-5952
网站上	-5953
而产生	-5954
聚四氟	-5955
背景墙	-5956
行业中	-5957
规定的	-5958
设立的	-5959
贵州省	-5960
赢得了	-5961
超过了	-5962
车辆和	-5963
较好的	-5964
过滤器	-5965
运动员	-5966
这一点	-5967
造成的	-5968
采访时	-5969
重庆市	-5970
金融城	-5971
零部件	-5972
青花瓷	-5973
马斯克	-5974
高品质	-5975
1500	-5976
Phon	-5977
levX	-5978
oyer	-5979
▁睡不着	-5980
世界经济	-5981
中心城市	-5982
中药资源	-5983
主要用于	-5984
人才培养	-5985
人民政府	-5986
亿人民币	-5987
什么样的	-5988
光环视界	-5989
克拉玛依	-5990
党风廉政	-5991
创新素养	-5992
刺客信条	-5993
劳动争议	-5994
医疗体系	-5995
卧式拉力	-5996
发展战略	-5997
可以选择	-5998
命运共同	-5999
国药集团	-6000
寒冷地区	-6001
库蒂尼奥	-6002
建筑工程	-6003
建筑面积	-6004
截至目前	-6005
文化艺术	-6006
文华大奖	-6007
新冠肺炎	-6008
有一定的	-6009
比较好的	-6010
法律法规	-6011
独一无二	-6012
环氧磨石	-6013
生态文明	-6014
电子产品	-6015
私募股权	-6016
管理体系	-6017
自主创新	-6018
行业信用	-6019
资产重组	-6020
越来越高	-6021
顺利完成	-6022
,2018	-6023
Moore	-6024
allah	-6025
▁四川大学	-6026
中国共产党	-6027
人民共和国	-6028
分布式账本	-6029
府生命密码	-6030
未成年网民	-6031
林业和草原	-6032
聚四氟乙烯	-6033
胎儿染色体	-6034
科技有限公司	-6035
严寒和寒冷地区	-6036
卧式拉力试验机	-6037
工业废水的处理	-6038
牛津大学出版社	-6039
▁Dollfie	-6040
少数民族传统体育	-6041
!》	-6042
)》	-6043
,/	-6044
,6	-6045
4)	-6046
72	-6047
91	-6048
93	-6049
AA	-6050
AB	-6051
BS	-6052
DN	-6053
ER	-6054
OC	-6055
PE	-6056
SF	-6057
ce	-6058
io	-6059
pr	-6060
rt	-6061
ss	-6062
ut	-6063
▁#	-6064
▁Y	-6065
▁b	-6066
▁》	-6067
▁伴	-6068
▁吵	-6069
▁吸	-6070
▁呃	-6071
▁嗨	-6072
▁套	-6073
▁定	-6074
▁巧	-6075
▁徐	-6076
▁扔	-6077
▁挑	-6078
▁搬	-6079
▁教	-6080
▁暑	-6081
▁欠	-6082
▁次	-6083
▁治	-6084
▁深	-6085
▁爸	-6086
▁牌	-6087
▁猴	-6088
▁现	-6089
▁电	-6090
▁省	-6091
▁碗	-6092
▁离	-6093
▁线	-6094
▁肥	-6095
▁腰	-6096
▁调	-6097
▁远	-6098
▁迷	-6099
▁遇	-6100
▁霸	-6101
▁领	-6102
▁飘	-6103
、4	-6104
一度	-6105
一款	-6106
三十	-6107
三是	-6108
上一	-6109
上料	-6110
上看	-6111
下了	-6112
不利	-6113
不宜	-6114
不敢	-6115
业内	-6116
东京	-6117
两者	-6118
中祥	-6119
为人	-6120
主场	-6121
举报	-6122
义勇	-6123
了两	-6124
五月	-6125
产能	-6126
京剧	-6127
人对	-6128
人气	-6129
今日	-6130
介入	-6131
从来	-6132
他还	-6133
们在	-6134
优级	-6135
会将	-6136
但它	-6137
住院	-6138
便捷	-6139
保存	-6140
倡议	-6141
债券	-6142
停车	-6143
像素	-6144
兆业	-6145
先行	-6146
光电	-6147
光盘	-6148
全县	-6149
公映	-6150
公用	-6151
关怀	-6152
关村	-6153
关税	-6154
兴业	-6155
养殖	-6156
内在	-6157
军事	-6158
冰雕	-6159
净水	-6160
准入	-6161
几何	-6162
出席	-6163
分工	-6164
分裂	-6165
创富	-6166
到来	-6167
制片	-6168
前期	-6169
前沿	-6170
功夫	-6171
功率	-6172
助理	-6173
势头	-6174
化粪	-6175
化解	-6176
区和	-6177
华人	-6178
单一	-6179
单人	-6180
卷皮	-6181
厘米	-6182
又称	-6183
友情	-6184
友谊	-6185
双向	-6186
反对	-6187
可口	-6188
同行	-6189
名言	-6190
后果	-6191
听取	-6192
哥哥	-6193
售价	-6194
商场	-6195
喜爱	-6196
喷涂	-6197
团的	-6198
困惑	-6199
国籍	-6200
国防	-6201
土木	-6202
在上	-6203
在华	-6204
在地	-6205
地铁	-6206
均为	-6207
垂直	-6208
城乡	-6209
增大	-6210
复用	-6211
外出	-6212
外界	-6213
大于	-6214
大屯	-6215
大胆	-6216
天宝	-6217
奋力	-6218
字母	-6219
安卓	-6220
实行	-6221
家和	-6222
富有	-6223
寻求	-6224
将有	-6225
小丑	-6226
小心	-6227
尽快	-6228
履行	-6229
州的	-6230
差距	-6231
师范	-6232
干净	-6233
平凡	-6234
平阳	-6235
年内	-6236
年底	-6237
庆元	-6238
应力	-6239
废物	-6240
座椅	-6241
弘扬	-6242
强烈	-6243
彩色	-6244
征求	-6245
很高	-6246
得上	-6247
得知	-6248
德博	-6249
心灵	-6250
忽略	-6251
情景	-6252
所说	-6253
手艺	-6254
披露	-6255
拿板	-6256
指定	-6257
排列	-6258
提名	-6259
摆放	-6260
摆脱	-6261
摩擦	-6262
攻坚	-6263
教室	-6264
整理	-6265
斯特	-6266
新楼	-6267
新生	-6268
新颖	-6269
无关	-6270
无穷	-6271
既然	-6272
日后	-6273
易佰	-6274
星系	-6275
普生	-6276
暂时	-6277
月至	-6278
有无	-6279
期的	-6280
未经	-6281
机芯	-6282
条钢	-6283
枢纽	-6284
柔软	-6285
栽培	-6286
榜单	-6287
正规	-6288
汇报	-6289
污泥	-6290
汤圆	-6291
泄露	-6292
消除	-6293
清华	-6294
湖泊	-6295
演变	-6296
潇洒	-6297
激素	-6298
灯光	-6299
热的	-6300
熟化	-6301
燎原	-6302
特饮	-6303
独家	-6304
王晶	-6305
现已	-6306
用处	-6307
的侵	-6308
的多	-6309
的爱	-6310
的风	-6311
目录	-6312
盲目	-6313
砂浆	-6314
磨合	-6315
种族	-6316
第六	-6317
等于	-6318
等级	-6319
筛检	-6320
算法	-6321
箧印	-6322
粉末	-6323
精选	-6324
繁荣	-6325
纠纷	-6326
级的	-6327
编码	-6328
老化	-6329
耐磨	-6330
苏州	-6331
虚假	-6332
行车	-6333
装水	-6334
西兰	-6335
要在	-6336
角落	-6337
论证	-6338
诗歌	-6339
询问	-6340
详情	-6341
贴合	-6342
贵的	-6343
跟着	-6344
路面	-6345
践行	-6346
轻易	-6347
辅导	-6348
达人	-6349
迎来	-6350
这对	-6351
进了	-6352
进气	-6353
追随	-6354
透露	-6355
遗产	-6356
遗传	-6357
那种	-6358
部长	-6359
都很	-6360
配方	-6361
钻探	-6362
铁路	-6363
铸铁	-6364
长荣	-6365
间隙	-6366
队员	-6367
防冻	-6368
阵容	-6369
降幅	-6370
颠覆	-6371
餐具	-6372
饮品	-6373
0.2	-6374
2.0	-6375
900	-6376
:00	-6377
ART	-6378
and	-6379
old	-6380
orp	-6381
out	-6382
ton	-6383
▁15	-6384
▁一段	-6385
▁上面	-6386
▁不得	-6387
▁不然	-6388
▁不算	-6389
▁也好	-6390
▁亲爱	-6391
▁代表	-6392
▁例如	-6393
▁做好	-6394
▁兄弟	-6395
▁变成	-6396
▁后面	-6397
▁听说	-6398
▁哪儿	-6399
▁喝酒	-6400
▁地址	-6401
▁外面	-6402
▁大哥	-6403
▁女儿	-6404
▁好听	-6405
▁学姐	-6406
▁学生	-6407
▁客户	-6408
▁恒大	-6409
▁想起	-6410
▁慢慢	-6411
▁我国	-6412
▁我来	-6413
▁接受	-6414
▁无聊	-6415
▁早餐	-6416
▁此次	-6417
▁游戏	-6418
▁状态	-6419
▁生气	-6420
▁电脑	-6421
▁电话	-6422
▁真心	-6423
▁经历	-6424
▁美好	-6425
▁自然	-6426
▁西安	-6427
▁解释	-6428
▁运动	-6429
▁这边	-6430
▁选择	-6431
▁那些	-6432
▁问问	-6433
▁项目	-6434
▁顺便	-6435
▁颜色	-6436
▁高兴	-6437
▁麻烦	-6438
万千瓦	-6439
上面的	-6440
下面就	-6441
不仅是	-6442
不到的	-6443
不断的	-6444
与美国	-6445
专业化	-6446
个重点	-6447
中国人	-6448
中药材	-6449
主要有	-6450
义勇为	-6451
乔布斯	-6452
也不是	-6453
也非常	-6454
了一种	-6455
了我的	-6456
事业部	-6457
事务所	-6458
事实上	-6459
交易所	-6460
他们在	-6461
低视力	-6462
做什么	-6463
充足的	-6464
公交车	-6465
写字楼	-6466
凤庆县	-6467
分析师	-6468
副主任	-6469
化合物	-6470
化粪池	-6471
华严经	-6472
双选会	-6473
发展和	-6474
发布了	-6475
发生在	-6476
可以让	-6477
和博士	-6478
和生活	-6479
在全球	-6480
在内的	-6481
在过去	-6482
在这种	-6483
基本上	-6484
增值税	-6485
增加到	-6486
增长了	-6487
增长的	-6488
大使馆	-6489
射手座	-6490
小小的	-6491
就不会	-6492
尽可能	-6493
幅度为	-6494
年同期	-6495
年开始	-6496
并提供	-6497
应用的	-6498
建设和	-6499
开发的	-6500
影响力	-6501
怎么办	-6502
成熟的	-6503
我国的	-6504
所以在	-6505
技术与	-6506
提到过	-6507
搜索词	-6508
摆线针	-6509
支队伍	-6510
日本的	-6511
时间去	-6512
时间的	-6513
春卷皮	-6514
是否有	-6515
更加的	-6516
替代品	-6517
有效地	-6518
朋友们	-6519
条件下	-6520
极大的	-6521
桑拿板	-6522
湖南省	-6523
灌装机	-6524
生产和	-6525
生产者	-6526
疾病的	-6527
百香果	-6528
的人才	-6529
的优势	-6530
的原则	-6531
的发生	-6532
的外观	-6533
的大力	-6534
的大型	-6535
的女性	-6536
的思想	-6537
的性能	-6538
的成功	-6539
的方法	-6540
的活动	-6541
的相关	-6542
的网站	-6543
的能力	-6544
省政府	-6545
知名度	-6546
研究的	-6547
研讨会	-6548
科创板	-6549
科医院	-6550
竹制品	-6551
第一轮	-6552
等技术	-6553
等相关	-6554
管理和	-6555
联合会	-6556
西红柿	-6557
认为是	-6558
让大家	-6559
转移到	-6560
还需要	-6561
适当的	-6562
通过了	-6563
都不能	-6564
阴离子	-6565
需要的	-6566
高科技	-6567
1200	-6568
2001	-6569
2030	-6570
Qual	-6571
STON	-6572
Wind	-6573
comm	-6574
edia	-6575
▁100	-6576
▁Mus	-6577
▁早上好	-6578
▁白癜风	-6579
▁老实人	-6580
▁近年来	-6581
世界卫生	-6582
东鹏特饮	-6583
个人信息	-6584
中国足球	-6585
丰富多彩	-6586
为一体的	-6587
也就是说	-6588
企业管理	-6589
企业网站	-6590
优级企业	-6591
信成公主	-6592
全国各地	-6593
创富兆业	-6594
创新能力	-6595
北京时间	-6596
医疗服务	-6597
司法鉴定	-6598
国有企业	-6599
宏观经济	-6600
尤其是在	-6601
希望能够	-6602
微信公众	-6603
成立以来	-6604
战略合作	-6605
日本商标	-6606
是我们的	-6607
智能家居	-6608
有关部门	-6609
期货市场	-6610
机械设备	-6611
核心技术	-6612
汽车金融	-6613
游戏企业	-6614
火力发电	-6615
火锅鸡精	-6616
现场仅供	-6617
社会责任	-6618
科技企业	-6619
管理条例	-6620
经济效益	-6621
经济社会	-6622
航空航天	-6623
荣誉称号	-6624
萨克斯坦	-6625
设计施工	-6626
调查显示	-6627
贫困地区	-6628
贯彻落实	-6629
资格考试	-6630
越来越大	-6631
违法行为	-6632
通过自学	-6633
阿弥陀经	-6634
项目建设	-6635
▁2009	-6636
▁2014	-6637
▁2018	-6638
。2019	-6639
产品的生产	-6640
具有良好的	-6641
冷镦机行业	-6642
办公室使用	-6643
曾经提到过	-6644
硅藻土优点	-6645
硕士和博士	-6646
xpedia	-6647
思考这个问题	-6648
王府生命密码	-6649
集成电路产业	-6650
中华人民共和国	-6651
公司的盈利能力	-6652
Qualcomm	-6653
▁应用硅藻土优点	-6654
现场仅供办公室使用	-6655
少数民族传统体育运动会	-6656
(6	-6657
,1	-6658
02	-6659
3)	-6660
4、	-6661
7%	-6662
76	-6663
77	-6664
:1	-6665
AI	-6666
AN	-6667
CE	-6668
DP	-6669
MA	-6670
PH	-6671
ax	-6672
cr	-6673
id	-6674
ld	-6675
ps	-6676
°,	-6677
――	-6678
”、	-6679
▁+	-6680
▁0	-6681
▁\	-6682
▁m	-6683
▁举	-6684
▁代	-6685
▁们	-6686
▁优	-6687
▁使	-6688
▁俩	-6689
▁儿	-6690
▁农	-6691
▁删	-6692
▁刷	-6693
▁午	-6694
▁取	-6695
▁喊	-6696
▁城	-6697
▁墙	-6698
▁复	-6699
▁嫉	-6700
▁宜	-6701
▁寄	-6702
▁应	-6703
▁底	-6704
▁忍	-6705
▁念	-6706
▁扎	-6707
▁护	-6708
▁摔	-6709
▁撩	-6710
▁春	-6711
▁智	-6712
▁条	-6713
▁牙	-6714
▁球	-6715
▁疯	-6716
▁福	-6717
▁秋	-6718
▁练	-6719
▁绿	-6720
▁缘	-6721
▁耍	-6722
▁脱	-6723
▁茶	-6724
▁药	-6725
▁虚	-6726
▁计	-6727
▁语	-6728
▁边	-6729
▁退	-6730
▁隔	-6731
▁青	-6732
▁鱼	-6733
、6	-6734
一律	-6735
一提	-6736
一本	-6737
一片	-6738
一生	-6739
三角	-6740
不下	-6741
不予	-6742
不去	-6743
不大	-6744
不必	-6745
不用	-6746
东南	-6747
东部	-6748
中午	-6749
中日	-6750
中期	-6751
临空	-6752
为先	-6753
为此	-6754
之上	-6755
之内	-6756
乐章	-6757
乘坐	-6758
也对	-6759
也曾	-6760
予以	-6761
产学	-6762
产物	-6763
享有	-6764
人心	-6765
从此	-6766
以便	-6767
会场	-6768
似的	-6769
例子	-6770
信念	-6771
信访	-6772
借贷	-6773
假设	-6774
健全	-6775
储量	-6776
儒家	-6777
先烈	-6778
光伏	-6779
党组	-6780
入选	-6781
八音	-6782
公立	-6783
兴奋	-6784
养生	-6785
再现	-6786
冒险	-6787
几种	-6788
凸显	-6789
出产	-6790
出租	-6791
分和	-6792
分辨	-6793
分配	-6794
划分	-6795
刚刚	-6796
利的	-6797
别墅	-6798
制药	-6799
前面	-6800
剧本	-6801
加重	-6802
动和	-6803
匆匆	-6804
北斗	-6805
北环	-6806
区分	-6807
卡罗	-6808
历经	-6809
压缩	-6810
参赛	-6811
又不	-6812
又有	-6813
友好	-6814
发言	-6815
受众	-6816
受伤	-6817
变焦	-6818
口式	-6819
可用	-6820
史密	-6821
同一	-6822
名义	-6823
后世	-6824
后勤	-6825
后续	-6826
含义	-6827
听说	-6828
哪种	-6829
唐代	-6830
善良	-6831
嘲笑	-6832
器材	-6833
团委	-6834
围棋	-6835
国青	-6836
圣依	-6837
地质	-6838
均有	-6839
坚实	-6840
堵塞	-6841
塔身	-6842
墨西	-6843
壁纸	-6844
复兴	-6845
外子	-6846
多名	-6847
多数	-6848
大桥	-6849
大楼	-6850
大脑	-6851
大选	-6852
天堂	-6853
太子	-6854
奏鸣	-6855
奠定	-6856
威廉	-6857
婚姻	-6858
季节	-6859
学硕	-6860
学金	-6861
它是	-6862
宏伟	-6863
定做	-6864
宝鸡	-6865
实务	-6866
客人	-6867
密檐	-6868
富汗	-6869
寺湾	-6870
封装	-6871
将以	-6872
尊严	-6873
小调	-6874
小院	-6875
少见	-6876
尔多	-6877
就已	-6878
尼尔	-6879
局长	-6880
山市	-6881
差别	-6882
常常	-6883
常识	-6884
平整	-6885
平板	-6886
并与	-6887
并于	-6888
并对	-6889
开会	-6890
开办	-6891
异地	-6892
引入	-6893
弟弟	-6894
张的	-6895
彭彭	-6896
循证	-6897
心地	-6898
必需	-6899
恐惧	-6900
惊讶	-6901
想的	-6902
意志	-6903
意法	-6904
愿景	-6905
或缺	-6906
手游	-6907
执着	-6908
扶持	-6909
承认	-6910
抑制	-6911
投诉	-6912
护照	-6913
拖车	-6914
推选	-6915
播放	-6916
攻击	-6917
放入	-6918
故意	-6919
敏感	-6920
敏捷	-6921
教案	-6922
教研	-6923
数千	-6924
新年	-6925
新药	-6926
旋律	-6927
日晚	-6928
时光	-6929
明亮	-6930
明节	-6931
是我	-6932
是最	-6933
暴跌	-6934
曼联	-6935
有个	-6936
有多	-6937
有望	-6938
末端	-6939
本地	-6940
朵花	-6941
机能	-6942
来喜	-6943
来讲	-6944
构思	-6945
树立	-6946
校友	-6947
梳理	-6948
模具	-6949
橘子	-6950
步行	-6951
歧视	-6952
毫不	-6953
水上	-6954
水电	-6955
汇聚	-6956
沈阳	-6957
沉淀	-6958
沙特	-6959
河北	-6960
泌尿	-6961
法医	-6962
泡沫	-6963
波分	-6964
洮南	-6965
洽谈	-6966
济宁	-6967
海绵	-6968
消失	-6969
淋巴	-6970
深处	-6971
温馨	-6972
游泳	-6973
演绎	-6974
激励	-6975
激发	-6976
激烈	-6977
灵感	-6978
煤矿	-6979
爱你	-6980
玄宗	-6981
环比	-6982
瑜伽	-6983
电煤	-6984
男篮	-6985
画面	-6986
留在	-6987
病变	-6988
的美	-6989
的身	-6990
的那	-6991
皇帝	-6992
监会	-6993
监理	-6994
直属	-6995
真诚	-6996
磁铁	-6997
突发	-6998
窗帘	-6999
立体	-7000
立方	-7001
符号	-7002
签署	-7003
精英	-7004
紧急	-7005
线路	-7006
组长	-7007
细菌	-7008
继承	-7009
维权	-7010
缠绕	-7011
美味	-7012
翅膀	-7013
考务	-7014
考点	-7015
者和	-7016
耗材	-7017
耳塞	-7018
职场	-7019
肠胃	-7020
肯齐	-7021
脚印	-7022
膨胀	-7023
膳食	-7024
艰难	-7025
葡萄	-7026
蓬勃	-7027
藏式	-7028
蜂蜜	-7029
螺杆	-7030
行驶	-7031
装订	-7032
西安	-7033
视为	-7034
计量	-7035
认同	-7036
诸多	-7037
调度	-7038
货币	-7039
赋予	-7040
转会	-7041
轻微	-7042
轻轻	-7043
达标	-7044
过了	-7045
过渡	-7046
近几	-7047
返回	-7048
进水	-7049
送一	-7050
途锐	-7051
通行	-7052
造就	-7053
遗憾	-7054
邪恶	-7055
邮件	-7056
部的	-7057
酸钙	-7058
重回	-7059
金色	-7060
钢琴	-7061
铺装	-7062
铺设	-7063
长度	-7064
队在	-7065
防潮	-7066
阻止	-7067
难度	-7068
韩元	-7069
页面	-7070
顺应	-7071
预先	-7072
预定	-7073
预算	-7074
额的	-7075
饺子	-7076
首个	-7077
首都	-7078
高雄	-7079
鲜明	-7080
鲥鱼	-7081
鸭子	-7082
黔娄	-7083
龙头	-7084
20.	-7085
28.	-7086
3.5	-7087
30%	-7088
315	-7089
9%,	-7090
arm	-7091
erm	-7092
est	-7093
lon	-7094
▁7、	-7095
▁OK	-7096
▁不吃	-7097
▁不来	-7098
▁个人	-7099
▁中学	-7100
▁从来	-7101
▁会计	-7102
▁伤心	-7103
▁全国	-7104
▁几个	-7105
▁刘海	-7106
▁加班	-7107
▁医生	-7108
▁友善	-7109
▁同意	-7110
▁多久	-7111
▁女孩	-7112
▁好玩	-7113
▁妹妹	-7114
▁嫉妒	-7115
▁宁波	-7116
▁安全	-7117
▁客气	-7118
▁对象	-7119
▁市场	-7120
▁建议	-7121
▁得到	-7122
▁心疼	-7123
▁情人	-7124
▁情况	-7125
▁我妈	-7126
▁我怕	-7127
▁拒绝	-7128
▁效果	-7129
▁整个	-7130
▁星期	-7131
▁没见	-7132
▁清楚	-7133
▁白天	-7134
▁白羊	-7135
▁睡眠	-7136
▁睡着	-7137
▁礼物	-7138
▁算法	-7139
▁结果	-7140
▁美国	-7141
▁老婆	-7142
▁自由	-7143
▁解决	-7144
▁说明	-7145
▁这句	-7146
▁酒店	-7147
▁青春	-7148
▁颜值	-7149
▁餐厅	-7150
。10	-7151
万美元	-7152
下半年	-7153
不清楚	-7154
与合作	-7155
世界的	-7156
中关村	-7157
中小型	-7158
为一体	-7159
为我们	-7160
为用户	-7161
主办方	-7162
也比较	-7163
了美国	-7164
五代机	-7165
产品中	-7166
价格为	-7167
优良的	-7168
会出现	-7169
但由于	-7170
体育局	-7171
使用了	-7172
保持着	-7173
做一个	-7174
克利斯	-7175
公司将	-7176
出色的	-7177
则表示	-7178
刚开始	-7179
副院长	-7180
加强对	-7181
博士生	-7182
原因是	-7183
及其他	-7184
发生的	-7185
变频器	-7186
召开了	-7187
可通过	-7188
史密斯	-7189
吉林省	-7190
同时在	-7191
含有的	-7192
吸引力	-7193
和支持	-7194
哈尔滨	-7195
地条钢	-7196
基金会	-7197
墨西哥	-7198
复用器	-7199
奏鸣曲	-7200
奥运会	-7201
如果您	-7202
学校的	-7203
宝箧印	-7204
家公司	-7205
将成为	-7206
就能够	-7207
尼克斯	-7208
已经有	-7209
帕德博	-7210
常用的	-7211
开发区	-7212
开发商	-7213
强烈的	-7214
很多的	-7215
怎样的	-7216
总量的	-7217
总面积	-7218
意识到	-7219
成立了	-7220
所有者	-7221
才能够	-7222
打印机	-7223
扩口式	-7224
找到了	-7225
效率高	-7226
新一代	-7227
新华社	-7228
新西兰	-7229
施工图	-7230
无纺布	-7231
日正式	-7232
是可以	-7233
是多少	-7234
是如何	-7235
是我国	-7236
晚上的	-7237
曝光率	-7238
更大的	-7239
有限定	-7240
本专业	-7241
来看看	-7242
标志着	-7243
模组式	-7244
正能量	-7245
比上月	-7246
毕业于	-7247
毕业后	-7248
治疗的	-7249
洗碗机	-7250
济州岛	-7251
浏览器	-7252
深刻的	-7253
火车站	-7254
爱普生	-7255
特色的	-7256
现阶段	-7257
电子式	-7258
的世界	-7259
的中心	-7260
的了解	-7261
的介绍	-7262
的全部	-7263
的创新	-7264
的功能	-7265
的变化	-7266
的商业	-7267
的女儿	-7268
的成绩	-7269
的成长	-7270
的控制	-7271
的效果	-7272
的整体	-7273
的朋友	-7274
的规定	-7275
的需要	-7276
相应的	-7277
真实性	-7278
知识和	-7279
研究员	-7280
称得上	-7281
等城市	-7282
等特点	-7283
等部门	-7284
纤波分	-7285
线城市	-7286
联互通	-7287
聚合物	-7288
自媒体	-7289
自然界	-7290
艺术节	-7291
被称为	-7292
让人们	-7293
许多人	-7294
那样的	-7295
银行业	-7296
门窗的	-7297
阿富汗	-7298
需求量	-7299
领先的	-7300
饮用水	-7301
高价值	-7302
高风险	-7303
麦肯齐	-7304
黄圣依	-7305
1-27	-7306
1361	-7307
1998	-7308
Bran	-7309
MBUS	-7310
ason	-7311
atch	-7312
ment	-7313
————	-7314
▁事实上	-7315
▁没什么	-7316
一段时间	-7317
上料搅拌	-7318
不可或缺	-7319
中国生物	-7320
临空经济	-7321
主要从事	-7322
了自己的	-7323
产品研发	-7324
亮相快本	-7325
人民医院	-7326
企业形象	-7327
信息技术	-7328
信用评级	-7329
全民超人	-7330
公共关系	-7331
公司股票	-7332
共同努力	-7333
分拆上市	-7334
创新创业	-7335
医疗机构	-7336
占地面积	-7337
可以说是	-7338
后期维护	-7339
咽喉不适	-7340
喜剧电影	-7341
土木工程	-7342
实施方案	-7343
实际行动	-7344
导航系统	-7345
工作经验	-7346
帕德博恩	-7347
废水处理	-7348
建筑物的	-7349
建设项目	-7350
循证医学	-7351
成为中国	-7352
提升公司	-7353
深冷技术	-7354
清华大学	-7355
游乐设备	-7356
演出活动	-7357
爱的旅馆	-7358
特别是在	-7359
生产企业	-7360
生产经营	-7361
电磁辐射	-7362
的一部分	-7363
监督检查	-7364
社会各界	-7365
科技大学	-7366
第三产业	-7367
素养教育	-7368
经营理念	-7369
美术作品	-7370
舞台艺术	-7371
节油大赛	-7372
若干政策	-7373
行政管理	-7374
表面处理	-7375
规划设计	-7376
让孩子们	-7377
设计标准	-7378
说过这样	-7379
调整机制	-7380
财务费用	-7381
这些问题	-7382
这样说过	-7383
进行调整	-7384
金属材料	-7385
非常容易	-7386
颁奖典礼	-7387
饮食老板	-7388
ARTIN	-7389
ClevX	-7390
ction	-7391
▁2021	-7392
中药资源的	-7393
二零一六年	-7394
克利斯朵夫	-7395
写真机喷头	-7396
利亚德投资	-7397
北新路桥的	-7398
危险化学品	-7399
哈萨克斯坦	-7400
国家和地区	-7401
图书馆书架	-7402
在不经意间	-7403
微信公众号	-7404
招投标工作	-7405
白癜风医院	-7406
的发展趋势	-7407
的基本理论	-7408
纤维水泥板	-7409
非常重要的	-7410
高质量发展	-7411
271-27	-7412
Branch	-7413
Dallah	-7414
NIMBUS	-7415
世界卫生组织	-7416
人类命运共同	-7417
型密封圈标准	-7418
室内环境保护	-7419
扩口式管接头	-7420
比去年同期低	-7421
私募股权投资	-7422
纤波分复用器	-7423
▁MARTIN	-7424
包括硕士和博士	-7425
建筑节能设计标准	-7426
科技股份有限公司	-7427
在不经意间这样说过	-7428
271-271361	-7429
▁新北市金山区中山路	-7430
................	-7431
",	-7432
(1	-7433
04	-7434
2。	-7435
41	-7436
96	-7437
:3	-7438
:6	-7439
:《	-7440
?0	-7441
BC	-7442
DR	-7443
FL	-7444
FR	-7445
NG	-7446
St	-7447
ak	-7448
eL	-7449
ec	-7450
ha	-7451
ll	-7452
re	-7453
▁丽	-7454
▁乌	-7455
▁云	-7456
▁各	-7457
▁吾	-7458
▁啧	-7459
▁嘞	-7460
▁奶	-7461
▁嫁	-7462
▁孙	-7463
▁廖	-7464
▁弱	-7465
▁恶	-7466
▁扯	-7467
▁方	-7468
▁未	-7469
▁某	-7470
▁爬	-7471
▁痛	-7472
▁石	-7473
▁破	-7474
▁礼	-7475
▁纸	-7476
▁舍	-7477
▁蓝	-7478
▁订	-7479
▁诗	-7480
▁课	-7481
▁赵	-7482
▁逛	-7483
▁道	-7484
▁闪	-7485
▁韩	-7486
。6	-7487
一座	-7488
一所	-7489
一遍	-7490
丈夫	-7491
上学	-7492
上有	-7493
上游	-7494
不含	-7495
不懂	-7496
不明	-7497
与众	-7498
与其	-7499
专辑	-7500
业主	-7501
业的	-7502
东北	-7503
东君	-7504
两位	-7505
中之	-7506
中性	-7507
中断	-7508
中最	-7509
中超	-7510
为你	-7511
为止	-7512
主创	-7513
主线	-7514
之年	-7515
之星	-7516
也让	-7517
书写	-7518
事物	-7519
二年	-7520
人为	-7521
仅为	-7522
从小	-7523
仓库	-7524
代的	-7525
以人	-7526
以其	-7527
任意	-7528
伊隆	-7529
会计	-7530
传入	-7531
传媒	-7532
估值	-7533
住宿	-7534
体型	-7535
余名	-7536
余项	-7537
你去	-7538
佩戴	-7539
使人	-7540
使我	-7541
俗的	-7542
信誉	-7543
信赖	-7544
偶猫	-7545
储备	-7546
光明	-7547
克清	-7548
兜底	-7549
全程	-7550
全长	-7551
八月	-7552
公认	-7553
兴起	-7554
内科	-7555
冲洗	-7556
冲突	-7557
出场	-7558
出血	-7559
分发	-7560
分数	-7561
分解	-7562
创办	-7563
利息	-7564
到位	-7565
办好	-7566
加剧	-7567
加华	-7568
加持	-7569
加油	-7570
劳拉	-7571
劳资	-7572
北美	-7573
北辰	-7574
十九	-7575
升降	-7576
华凯	-7577
华夏	-7578
华水	-7579
单元	-7580
南昌	-7581
即是	-7582
却不	-7583
历时	-7584
厌食	-7585
参予	-7586
发票	-7587
古城	-7588
叫做	-7589
可在	-7590
可行	-7591
台北	-7592
史上	-7593
史学	-7594
史诗	-7595
右路	-7596
号召	-7597
各式	-7598
启示	-7599
周一	-7600
和中	-7601
和新	-7602
和的	-7603
咖啡	-7604
商户	-7605
回升	-7606
回国	-7607
回调	-7608
团员	-7609
围栏	-7610
国情	-7611
在天	-7612
在小	-7613
在高	-7614
地坪	-7615
地震	-7616
均可	-7617
境内	-7618
增量	-7619
声波	-7620
声称	-7621
备受	-7622
备案	-7623
外情	-7624
外科	-7625
外语	-7626
大厦	-7627
大国	-7628
大树	-7629
大盘	-7630
大街	-7631
天时	-7632
夫妇	-7633
失业	-7634
女友	-7635
好处	-7636
妇产	-7637
妈咪	-7638
娅维	-7639
字号	-7640
学员	-7641
学家	-7642
安特	-7643
安置	-7644
宗室	-7645
定点	-7646
宝市	-7647
审议	-7648
宴会	-7649
家里	-7650
对策	-7651
导游	-7652
导轨	-7653
将为	-7654
小型	-7655
尴尬	-7656
屈原	-7657
展演	-7658
山西	-7659
山论	-7660
巡回	-7661
已有	-7662
巴巴	-7663
布鲁	-7664
师的	-7665
带有	-7666
席位	-7667
幅度	-7668
干预	-7669
年后	-7670
广交	-7671
庆典	-7672
底线	-7673
座和	-7674
开元	-7675
开通	-7676
张一	-7677
当局	-7678
形码	-7679
很久	-7680
得起	-7681
怀孕	-7682
性别	-7683
性格	-7684
总统	-7685
恋情	-7686
悬念	-7687
情节	-7688
想起	-7689
意旋	-7690
意象	-7691
感知	-7692
成交	-7693
我司	-7694
或多	-7695
战火	-7696
房子	-7697
手工	-7698
托昆	-7699
扮演	-7700
扳手	-7701
扶贫	-7702
护栏	-7703
报考	-7704
报表	-7705
报警	-7706
抵抗	-7707
抽取	-7708
拟题	-7709
拨打	-7710
拿到	-7711
挂牌	-7712
按钮	-7713
按键	-7714
振兴	-7715
接口	-7716
推行	-7717
搪瓷	-7718
摊铺	-7719
撰写	-7720
支为	-7721
故乡	-7722
救灾	-7723
敬老	-7724
整车	-7725
斯科	-7726
新机	-7727
方形	-7728
施行	-7729
日和	-7730
日期	-7731
明年	-7732
易于	-7733
易见	-7734
是无	-7735
显而	-7736
晶体	-7737
更大	-7738
月明	-7739
服饰	-7740
朗读	-7741
本营	-7742
来华	-7743
林逸	-7744
柔性	-7745
样板	-7746
桥式	-7747
概述	-7748
歌曲	-7749
正义	-7750
此片	-7751
民用	-7752
水利	-7753
水性	-7754
汉语	-7755
法庭	-7756
注入	-7757
洛特	-7758
海信	-7759
涨幅	-7760
混乱	-7761
清理	-7762
清科	-7763
渐渐	-7764
渡海	-7765
澳门	-7766
火花	-7767
灿烂	-7768
熊猫	-7769
爸爸	-7770
版和	-7771
王子	-7772
玩笑	-7773
生动	-7774
生成	-7775
用在	-7776
用电	-7777
男友	-7778
界面	-7779
病学	-7780
病的	-7781
登录	-7782
的和	-7783
的天	-7784
的海	-7785
的的	-7786
的营	-7787
相近	-7788
看出	-7789
看见	-7790
着重	-7791
瞩目	-7792
知的	-7793
短的	-7794
研磨	-7795
秋节	-7796
种子	-7797
科室	-7798
科院	-7799
称作	-7800
税款	-7801
税率	-7802
立项	-7803
答复	-7804
筛法	-7805
简便	-7806
类烟	-7807
类的	-7808
粒体	-7809
粘结	-7810
精心	-7811
繁殖	-7812
纠结	-7813
约占	-7814
约翰	-7815
纪检	-7816
纯粹	-7817
线棒	-7818
组学	-7819
组装	-7820
终身	-7821
经由	-7822
经纪	-7823
结婚	-7824
结局	-7825
缝隙	-7826
缺少	-7827
缺陷	-7828
罗马	-7829
联动	-7830
脱颖	-7831
色调	-7832
艾德	-7833
苏家	-7834
草坪	-7835
莱坞	-7836
蕴含	-7837
蛋皮	-7838
衔接	-7839
衣裙	-7840
要是	-7841
要有	-7842
视光	-7843
誉为	-7844
记载	-7845
证据	-7846
评标	-7847
话剧	-7848
诱发	-7849
读研	-7850
调味	-7851
豪华	-7852
贝贝	-7853
贫穷	-7854
赔偿	-7855
赠送	-7856
足协	-7857
跟随	-7858
路网	-7859
车道	-7860
输入	-7861
过多	-7862
这份	-7863
这时	-7864
这条	-7865
进去	-7866
连锁	-7867
迷你	-7868
迹象	-7869
选址	-7870
逐年	-7871
途中	-7872
通用	-7873
通风	-7874
遭受	-7875
配料	-7876
酒吧	-7877
酸甜	-7878
里克	-7879
里街	-7880
重量	-7881
金石	-7882
销商	-7883
间接	-7884
防渗	-7885
附件	-7886
陆续	-7887
陈飞	-7888
降级	-7889
限量	-7890
陷入	-7891
隔离	-7892
集了	-7893
雕刻	-7894
雕塑	-7895
面貌	-7896
音响	-7897
顾问	-7898
预订	-7899
风雨	-7900
食材	-7901
马尔	-7902
驿站	-7903
骚扰	-7904
高峰	-7905
魔术	-7906
**、	-7907
,11	-7908
-11	-7909
007	-7910
1.0	-7911
1.8	-7912
10%	-7913
102	-7914
16.	-7915
2%,	-7916
240	-7917
27.	-7918
98.	-7919
:33	-7920
Con	-7921
GPS	-7922
ICS	-7923
IPS	-7924
Lov	-7925
NEX	-7926
STM	-7927
ant	-7928
ata	-7929
ian	-7930
ics	-7931
ley	-7932
——“	-7933
▁Ar	-7934
▁Te	-7935
▁一套	-7936
▁一把	-7937
▁一条	-7938
▁下载	-7939
▁不够	-7940
▁不如	-7941
▁不知	-7942
▁两年	-7943
▁中的	-7944
▁主动	-7945
▁于是	-7946
▁享受	-7947
▁任何	-7948
▁会员	-7949
▁伤害	-7950
▁体重	-7951
▁体验	-7952
▁健康	-7953
▁健身	-7954
▁关系	-7955
▁冰箱	-7956
▁化妆	-7957
▁半年	-7958
▁南方	-7959
▁原因	-7960
▁同样	-7961
▁听到	-7962
▁味道	-7963
▁和谐	-7964
▁哇塞	-7965
▁哪有	-7966
▁回到	-7967
▁回忆	-7968
▁因此	-7969
▁城市	-7970
▁声音	-7971
▁妹子	-7972
▁完美	-7973
▁宝贝	-7974
▁实话	-7975
▁富强	-7976
▁差点	-7977
▁广州	-7978
▁开车	-7979
▁很大	-7980
▁心酸	-7981
▁恩恩	-7982
▁成都	-7983
▁我能	-7984
▁房子	-7985
▁报告	-7986
▁拥有	-7987
▁拯救	-7988
▁据说	-7989
▁故事	-7990
▁无敌	-7991
▁无论	-7992
▁暑假	-7993
▁更好	-7994
▁最好	-7995
▁最帅	-7996
▁正好	-7997
▁每个	-7998
▁清科	-7999
▁潇洒	-8000
▁现实	-8001
▁直播	-8002
▁眼神	-8003
▁离开	-8004
▁紧张	-8005
▁结合	-8006
▁网站	-8007
▁苏意	-8008
▁要么	-8009
▁见到	-8010
▁认真	-8011
▁路上	-8012
▁身边	-8013
▁身高	-8014
▁近日	-8015
▁进入	-8016
▁遇到	-8017
▁那样	-8018
▁重点	-8019
▁长大	-8020
▁长得	-8021
▁高中	-8022
一个个	-8023
一开始	-8024
下一个	-8025
下一代	-8026
不好的	-8027
不愿意	-8028
不管是	-8029
个性化	-8030
为中国	-8031
为目的	-8032
乳腺癌	-8033
了许多	-8034
产品有	-8035
人体的	-8036
人类的	-8037
代表的	-8038
以此为	-8039
仪式上	-8040
优质的	-8041
伟大的	-8042
体系的	-8043
作品中	-8044
佣金率	-8045
做出了	-8046
健康的	-8047
充分的	-8048
克拉和	-8049
党支部	-8050
全方位	-8051
全球化	-8052
关键词	-8053
其他的	-8054
具有高	-8055
再加上	-8056
准确的	-8057
出入境	-8058
出生于	-8059
分公司	-8060
到中国	-8061
制作的	-8062
劳动力	-8063
十三五	-8064
华水政	-8065
单位的	-8066
占据了	-8067
厌食症	-8068
参与者	-8069
反应器	-8070
可再生	-8071
可根据	-8072
可能是	-8073
可能的	-8074
合理的	-8075
合适的	-8076
同样的	-8077
吸引了	-8078
呈现出	-8079
命名为	-8080
和使用	-8081
嘉年华	-8082
国青队	-8083
在一个	-8084
在日常	-8085
在生产	-8086
场比赛	-8087
坚持以	-8088
复杂化	-8089
多亿元	-8090
多样的	-8091
大幅度	-8092
奶茶店	-8093
如果不	-8094
如果要	-8095
始建于	-8096
婚外情	-8097
字符串	-8098
学习的	-8099
孵化器	-8100
对自己	-8101
寺湾镇	-8102
将达到	-8103
小伙伴	-8104
小时的	-8105
就是要	-8106
尹县令	-8107
尼尔森	-8108
展现了	-8109
展示出	-8110
山论剑	-8111
州大学	-8112
工作者	-8113
布偶猫	-8114
平阳县	-8115
年龄段	-8116
广告的	-8117
归属于	-8118
当我们	-8119
形式的	-8120
往往会	-8121
很重要	-8122
很高的	-8123
心血管	-8124
必不可	-8125
必须在	-8126
性能好	-8127
成都市	-8128
我们也	-8129
我们会	-8130
我们带	-8131
我觉得	-8132
所在地	-8133
托昆博	-8134
报记者	-8135
据了解	-8136
掌握了	-8137
排名第	-8138
提交的	-8139
政策的	-8140
方式的	-8141
时期内	-8142
时间为	-8143
明确的	-8144
是一座	-8145
是比较	-8146
有的人	-8147
服务等	-8148
条形码	-8149
次助攻	-8150
母公司	-8151
水头镇	-8152
活动中	-8153
流产后	-8154
浙江省	-8155
液伺服	-8156
深圳段	-8157
潘月明	-8158
灵宝市	-8159
烙馍机	-8160
现在的	-8161
玻璃瓶	-8162
甚至是	-8163
生活在	-8164
癌细胞	-8165
的制作	-8166
的功效	-8167
的商品	-8168
的增长	-8169
的就是	-8170
的形象	-8171
的态度	-8172
的热量	-8173
的职业	-8174
的艺术	-8175
的责任	-8176
的通知	-8177
的音乐	-8178
的高度	-8179
皇太子	-8180
离开了	-8181
稳定性	-8182
第一部	-8183
第二届	-8184
等各种	-8185
等各类	-8186
等因素	-8187
组成的	-8188
经济的	-8189
给我们	-8190
继电器	-8191
美丽的	-8192
美好的	-8193
老党员	-8194
联合国	-8195
胡意旋	-8196
自己在	-8197
营业务	-8198
螺杆泵	-8199
袁娅维	-8200
被列为	-8201
西安市	-8202
西游记	-8203
要进行	-8204
规范化	-8205
让自己	-8206
证监会	-8207
该产品	-8208
购买的	-8209
起重量	-8210
足够的	-8211
转化为	-8212
运行的	-8213
近些年	-8214
还包括	-8215
这两个	-8216
追随者	-8217
都知道	-8218
都需要	-8219
都非常	-8220
铝合金	-8221
银行家	-8222
阿拉伯	-8223
陈教授	-8224
陈飞宇	-8225
非常好	-8226
面临的	-8227
项目是	-8228
领导力	-8229
高技术	-8230
鲍威尔	-8231
0313	-8232
6061	-8233
Type	-8234
esos	-8235
olog	-8236
uber	-8237
▁(5)	-8238
▁一个月	-8239
▁好不好	-8240
▁差不多	-8241
一个新的	-8242
一带一路	-8243
一提的是	-8244
一次出现	-8245
不必要的	-8246
不断提升	-8247
东坡先生	-8248
中国工程	-8249
主管部门	-8250
了解更多	-8251
传统文化	-8252
做网站的	-8253
充分发挥	-8254
党员干部	-8255
公共交通	-8256
公共区域	-8257
再次发生	-8258
刷票公司	-8259
区块链的	-8260
可以根据	-8261
国际合作	-8262
地区邮政	-8263
塑料制品	-8264
大大降低	-8265
媒体报道	-8266
定制礼品	-8267
小米集团	-8268
工作原理	-8269
工程施工	-8270
已经开始	-8271
市场主体	-8272
干燥设备	-8273
当今艺术	-8274
感应加热	-8275
我国能源	-8276
所以我们	-8277
接下来的	-8278
控制系统	-8279
推选活动	-8280
搜索引擎	-8281
教育学院	-8282
数码产品	-8283
文化教育	-8284
明确提出	-8285
显而易见	-8286
普希金的	-8287
有力支撑	-8288
服务中心	-8289
服务水平	-8290
洗手高效	-8291
消费者对	-8292
消费者的	-8293
消防安全	-8294
液晶显示	-8295
爱心早餐	-8296
现货黄金	-8297
生产成本	-8298
的重要性	-8299
相机镜头	-8300
社交媒体	-8301
社会科学	-8302
科学技术	-8303
税控收款	-8304
管理人员	-8305
综合服务	-8306
网络营销	-8307
职业学校	-8308
能源结构	-8309
脱贫攻坚	-8310
脱颖而出	-8311
自主研发	-8312
薄膜电池	-8313
融资租赁	-8314
见义勇为	-8315
规模以上	-8316
这种情况	-8317
造型设计	-8318
集团旗下	-8319
需要进行	-8320
高等教育	-8321
黑碳化硅	-8322
LoveL	-8323
pring	-8324
▁2013	-8325
▁Musk	-8326
▁不好意思	-8327
亲爱的旅馆	-8328
企事业单位	-8329
低视力康复	-8330
克拉和玛依	-8331
博士生导师	-8332
可再生能源	-8333
安特托昆博	-8334
平均价格为	-8335
应用心理学	-8336
意法半导体	-8337
提高产品的	-8338
数码产品的	-8339
林志玲相左	-8340
比上月同期	-8341
烧结钕铁硼	-8342
科学研究院	-8343
而产生结合	-8344
自闭症儿童	-8345
至关重要的	-8346
运动木地板	-8347
黑色素细胞	-8348
Google	-8349
▁Super	-8350
一次出现位置	-8351
分布式数据库	-8352
定制橡胶制品	-8353
林业和草原局	-8354
越来越多的人	-8355
重大资产重组	-8356
Expedia	-8357
中药资源的综合	-8358
光纤波分复用器	-8359
LoveLive	-8360
张家界聚丙烯酰胺	-8361
耀华国际教育学校	-8362
集成电路产业和软件	-8363
届中国最具幸福感城市	-8364
届中国最具幸福感城市推选活动	-8365
-3	-8366
-5	-8367
07	-8368
1%	-8369
1~	-8370
43	-8371
5-	-8372
6)	-8373
BE	-8374
BO	-8375
FT	-8376
Gr	-8377
LC	-8378
LG	-8379
LO	-8380
PA	-8381
SA	-8382
SC	-8383
TV	-8384
Tr	-8385
UC	-8386
ik	-8387
ox	-8388
se	-8389
sq	-8390
ug	-8391
▁a	-8392
▁g	-8393
▁v	-8394
▁●	-8395
▁世	-8396
▁久	-8397
▁京	-8398
▁俺	-8399
▁借	-8400
▁公	-8401
▁其	-8402
▁压	-8403
▁句	-8404
▁另	-8405
▁名	-8406
▁唐	-8407
▁喜	-8408
▁喽	-8409
▁因	-8410
▁场	-8411
▁堵	-8412
▁奔	-8413
▁奖	-8414
▁守	-8415
▁怼	-8416
▁推	-8417
▁曲	-8418
▁杨	-8419
▁校	-8420
▁桃	-8421
▁梗	-8422
▁楼	-8423
▁沉	-8424
▁港	-8425
▁灯	-8426
▁灰	-8427
▁炸	-8428
▁片	-8429
▁牢	-8430
▁眉	-8431
▁硬	-8432
▁缺	-8433
▁范	-8434
▁菜	-8435
▁觉	-8436
▁解	-8437
▁许	-8438
▁躺	-8439
▁输	-8440
▁迟	-8441
▁遍	-8442
▁遭	-8443
▁闹	-8444
一台	-8445
一环	-8446
七年	-8447
万多	-8448
三位	-8449
上传	-8450
上所	-8451
上期	-8452
下列	-8453
下属	-8454
下载	-8455
不吃	-8456
不妨	-8457
不应	-8458
专硕	-8459
业界	-8460
东路	-8461
两校	-8462
两边	-8463
严肃	-8464
个别	-8465
中医	-8466
中哈	-8467
中外	-8468
中所	-8469
为其	-8470
主架	-8471
主的	-8472
也为	-8473
也就	-8474
乡镇	-8475
书面	-8476
事馆	-8477
二人	-8478
亚当	-8479
交付	-8480
交往	-8481
交所	-8482
交换	-8483
交给	-8484
亲友	-8485
人人	-8486
人或	-8487
亿人	-8488
仍将	-8489
从上	-8490
从不	-8491
他与	-8492
他是	-8493
令营	-8494
企鹅	-8495
众所	-8496
优美	-8497
会更	-8498
会长	-8499
传奇	-8500
但也	-8501
位数	-8502
体外	-8503
体温	-8504
佛塔	-8505
佛士	-8506
你会	-8507
使他	-8508
侵犯	-8509
便于	-8510
保守	-8511
借款	-8512
倪妮	-8513
倾向	-8514
储能	-8515
全局	-8516
全线	-8517
全院	-8518
全额	-8519
公务	-8520
兰格	-8521
共识	-8522
兼容	-8523
内外	-8524
内涵	-8525
写了	-8526
几率	-8527
凭着	-8528
出不	-8529
出厂	-8530
出国	-8531
出货	-8532
出资	-8533
划归	-8534
初级	-8535
制动	-8536
前十	-8537
前海	-8538
前的	-8539
前途	-8540
加固	-8541
加深	-8542
北区	-8543
医务	-8544
十足	-8545
升高	-8546
华北	-8547
单词	-8548
博客	-8549
卡尔	-8550
卡车	-8551
即便	-8552
压电	-8553
原来	-8554
去了	-8555
县级	-8556
双千	-8557
反击	-8558
反响	-8559
反感	-8560
发作	-8561
发光	-8562
发热	-8563
取消	-8564
变更	-8565
叙事	-8566
口市	-8567
口水	-8568
召回	-8569
可惜	-8570
可汗	-8571
可穿	-8572
可突	-8573
可谓	-8574
台风	-8575
号码	-8576
各异	-8577
名誉	-8578
后者	-8579
周五	-8580
命令	-8581
命名	-8582
和非	-8583
哪怕	-8584
喉咙	-8585
四位	-8586
回乡	-8587
因其	-8588
围护	-8589
在场	-8590
在大	-8591
在对	-8592
在我	-8593
在海	-8594
地基	-8595
地将	-8596
地说	-8597
场次	-8598
坐落	-8599
坚强	-8600
型材	-8601
基调	-8602
塑造	-8603
塞尔	-8604
处处	-8605
复印	-8606
外形	-8607
外资	-8608
多久	-8609
多芬	-8610
大增	-8611
大宗	-8612
大批	-8613
大贵	-8614
大门	-8615
天包	-8616
夹具	-8617
奖励	-8618
如同	-8619
妻子	-8620
姬存	-8621
婆婆	-8622
存的	-8623
学和	-8624
安心	-8625
实效	-8626
客观	-8627
害怕	-8628
家乐	-8629
密集	-8630
富裕	-8631
对美	-8632
将要	-8633
将近	-8634
小羽	-8635
尔斯	-8636
就读	-8637
属性	-8638
山岛	-8639
岩石	-8640
崛起	-8641
工件	-8642
工期	-8643
左手	-8644
巧妙	-8645
已于	-8646
已被	-8647
布鞋	-8648
师父	-8649
常委	-8650
常用	-8651
帽子	-8652
干活	-8653
干涉	-8654
平等	-8655
年第	-8656
年纪	-8657
店的	-8658
废弃	-8659
度假	-8660
康丹	-8661
建国	-8662
弗森	-8663
弥补	-8664
弹簧	-8665
形态	-8666
征程	-8667
律师	-8668
得着	-8669
德勤	-8670
心情	-8671
快捷	-8672
快餐	-8673
忽视	-8674
总共	-8675
息息	-8676
恶劣	-8677
患有	-8678
悲伤	-8679
悲观	-8680
想在	-8681
想必	-8682
意向	-8683
感动	-8684
慷慨	-8685
我就	-8686
或少	-8687
战胜	-8688
承包	-8689
把它	-8690
抑扬	-8691
抗压	-8692
抛弃	-8693
护角	-8694
报中	-8695
报价	-8696
抽屉	-8697
担忧	-8698
拜登	-8699
拥抱	-8700
据报	-8701
授课	-8702
排污	-8703
探险	-8704
控告	-8705
搭载	-8706
携带	-8707
摄像	-8708
摄入	-8709
支架	-8710
收藏	-8711
政务	-8712
敢于	-8713
文题	-8714
新晋	-8715
方针	-8716
旅程	-8717
无数	-8718
无线	-8719
既能	-8720
旭源	-8721
时捷	-8722
时机	-8723
时至	-8724
时起	-8725
春秋	-8726
春花	-8727
昨天	-8728
是要	-8729
是谁	-8730
显着	-8731
景区	-8732
景象	-8733
暂行	-8734
暑期	-8735
暗影	-8736
更低	-8737
更强	-8738
最快	-8739
月初	-8740
有其	-8741
有色	-8742
有趣	-8743
朗诵	-8744
朝阳	-8745
机身	-8746
杀人	-8747
杀菌	-8748
杂货	-8749
李怀	-8750
村民	-8751
村的	-8752
来临	-8753
杨祖	-8754
松子	-8755
极限	-8756
构筑	-8757
构造	-8758
林草	-8759
柳熙	-8760
样品	-8761
格里	-8762
桑德	-8763
检举	-8764
模糊	-8765
模范	-8766
欧阳	-8767
款式	-8768
歌手	-8769
步伐	-8770
步入	-8771
毒素	-8772
氏症	-8773
气氛	-8774
水中	-8775
水土	-8776
永磁	-8777
江西	-8778
沃尔	-8779
油闷	-8780
法令	-8781
注定	-8782
泰安	-8783
泵业	-8784
洗净	-8785
洗衣	-8786
活力	-8787
派对	-8788
流失	-8789
测报	-8790
浓厚	-8791
涂上	-8792
深思	-8793
清凉	-8794
港口	-8795
渲染	-8796
游玩	-8797
溃疡	-8798
澎湃	-8799
火爆	-8800
灭菌	-8801
灰色	-8802
点是	-8803
点的	-8804
热烈	-8805
热爱	-8806
焦虑	-8807
焰口	-8808
照护	-8809
爱国	-8810
爱好	-8811
牛耿	-8812
物体	-8813
特质	-8814
猎人	-8815
玉米	-8816
玩法	-8817
环绕	-8818
瓦特	-8819
生意	-8820
生气	-8821
用了	-8822
用药	-8823
用车	-8824
甲醛	-8825
申购	-8826
电流	-8827
电镀	-8828
畅通	-8829
留意	-8830
病因	-8831
白金	-8832
百年	-8833
的总	-8834
的车	-8835
直径	-8836
直至	-8837
直辖	-8838
相亲	-8839
相辉	-8840
真理	-8841
眼镜	-8842
石墨	-8843
确诊	-8844
福利	-8845
离婚	-8846
科普	-8847
租借	-8848
积分	-8849
稍微	-8850
空运	-8851
窗口	-8852
立法	-8853
等主	-8854
等人	-8855
筹备	-8856
管材	-8857
管辖	-8858
粉虫	-8859
素数	-8860
繁多	-8861
线的	-8862
组建	-8863
绑架	-8864
结论	-8865
缅怀	-8866
缩小	-8867
美好	-8868
美容	-8869
美洲	-8870
老婆	-8871
耐用	-8872
联东	-8873
聚会	-8874
能否	-8875
脆弱	-8876
脱离	-8877
致敬	-8878
草药	-8879
药用	-8880
萎缩	-8881
营收	-8882
蔓延	-8883
虫情	-8884
血性	-8885
补偿	-8886
表彰	-8887
被选	-8888
装配	-8889
西亚	-8890
西藏	-8891
要对	-8892
见到	-8893
观的	-8894
警告	-8895
让他	-8896
让您	-8897
议员	-8898
记忆	-8899
讲解	-8900
诊疗	-8901
译制	-8902
诚实	-8903
该塔	-8904
该局	-8905
误区	-8906
说的	-8907
调试	-8908
豪门	-8909
貌似	-8910
贺岁	-8911
资助	-8912
资深	-8913
赛区	-8914
赞扬	-8915
越好	-8916
越高	-8917
路径	-8918
车轮	-8919
车间	-8920
轮胎	-8921
边是	-8922
迁移	-8923
过度	-8924
还未	-8925
进攻	-8926
追溯	-8927
逆转	-8928
那是	-8929
那里	-8930
都被	-8931
配对	-8932
重启	-8933
金钟	-8934
鉴于	-8935
鉴别	-8936
锁定	-8937
镀层	-8938
长久	-8939
长大	-8940
长达	-8941
门类	-8942
队友	-8943
队的	-8944
防水	-8945
青藏	-8946
韧性	-8947
领会	-8948
领袖	-8949
食堂	-8950
饮水	-8951
饼机	-8952
首届	-8953
首批	-8954
骨干	-8955
高山	-8956
麻烦	-8957
黄色	-8958
龄化	-8959
龙门	-8960
)、《	-8961
,10	-8962
,16	-8963
---	-8964
-17	-8965
0.0	-8966
0.9	-8967
150	-8968
19.	-8969
24.	-8970
4%,	-8971
40%	-8972
5.5	-8973
6.8	-8974
Act	-8975
GDP	-8976
ING	-8977
Mac	-8978
The	-8979
anc	-8980
ans	-8981
ban	-8982
dll	-8983
ens	-8984
ger	-8985
ice	-8986
icr	-8987
ket	-8988
odu	-8989
ome	-8990
ond	-8991
opp	-8992
org	-8993
ows	-8994
——《	-8995
”,“	-8996
▁18	-8997
▁Al	-8998
▁Ch	-8999
▁Gr	-9000
▁一件	-9001
▁一块	-9002
▁三星	-9003
▁不同	-9004
▁不太	-9005
▁严重	-9006
▁事儿	-9007
▁以下	-9008
▁优秀	-9009
▁作业	-9010
▁作者	-9011
▁保持	-9012
▁做饭	-9013
▁偶尔	-9014
▁儿子	-9015
▁兴趣	-9016
▁刚才	-9017
▁医院	-9018
▁半个	-9019
▁博主	-9020
▁厦门	-9021
▁发生	-9022
▁可不	-9023
▁司机	-9024
▁吃药	-9025
▁啥子	-9026
▁圣诞	-9027
▁垃圾	-9028
▁夏天	-9029
▁失眠	-9030
▁好奇	-9031
▁嫌弃	-9032
▁安徽	-9033
▁寂寞	-9034
▁尊重	-9035
▁小米	-9036
▁属于	-9037
▁广东	-9038
▁床上	-9039
▁当初	-9040
▁影响	-9041
▁快递	-9042
▁想到	-9043
▁愿意	-9044
▁我刚	-9045
▁我想	-9046
▁拍照	-9047
▁按照	-9048
▁据悉	-9049
▁提供	-9050
▁搞笑	-9051
▁日前	-9052
▁智商	-9053
▁标普	-9054
▁根本	-9055
▁比赛	-9056
▁毛病	-9057
▁温暖	-9058
▁温柔	-9059
▁演员	-9060
▁激动	-9061
▁爱情	-9062
▁父母	-9063
▁爷爷	-9064
▁爸妈	-9065
▁短发	-9066
▁碰到	-9067
▁社会	-9068
▁科学	-9069
▁移动	-9070
▁等等	-9071
▁答案	-9072
▁算了	-9073
▁系列	-9074
▁经过	-9075
▁结束	-9076
▁缘分	-9077
▁美丽	-9078
▁美食	-9079
▁老大	-9080
▁老板	-9081
▁考虑	-9082
▁聊天	-9083
▁聪明	-9084
▁节奏	-9085
▁花痴	-9086
▁苹果	-9087
▁记者	-9088
▁资源	-9089
▁起床	-9090
▁这一	-9091
▁进去	-9092
▁遇见	-9093
▁长袖	-9094
▁附属	-9095
▁随后	-9096
▁随意	-9097
▁随时	-9098
▁难过	-9099
▁首先	-9100
▁骂人	-9101
▁高温	-9102
▁默默	-9103
》)。	-9104
》,《	-9105
一直未	-9106
万金石	-9107
不了解	-9108
不仅要	-9109
不同于	-9110
与当地	-9111
与技术	-9112
东南亚	-9113
中含有	-9114
中秋节	-9115
中长期	-9116
为导向	-9117
之所以	-9118
也开始	-9119
也逐渐	-9120
了一下	-9121
了这个	-9122
亚健康	-9123
产业化	-9124
人员的	-9125
人民的	-9126
什么是	-9127
仅次于	-9128
他们对	-9129
令品牌	-9130
以前的	-9131
以后的	-9132
任天堂	-9133
企业在	-9134
企业家	-9135
众所周	-9136
体检站	-9137
体现在	-9138
佛菩萨	-9139
供应商	-9140
供应黄	-9141
信息的	-9142
倡议书	-9143
停车场	-9144
兆韩元	-9145
公司和	-9146
公司正	-9147
公安局	-9148
公布的	-9149
公开发	-9150
关注的	-9151
关键是	-9152
内容的	-9153
农产品	-9154
决定了	-9155
净水器	-9156
准备好	-9157
几乎是	-9158
几年前	-9159
出现的	-9160
到一个	-9161
制度的	-9162
副教授	-9163
占公司	-9164
印刷品	-9165
历史的	-9166
厚度为	-9167
参观了	-9168
发表了	-9169
受版权	-9170
可以将	-9171
可用于	-9172
可突于	-9173
向公司	-9174
和他的	-9175
和国家	-9176
和工作	-9177
唐玄宗	-9178
四送一	-9179
因为在	-9180
团委会	-9181
国际上	-9182
在使用	-9183
在国内	-9184
在美国	-9185
在购买	-9186
在这一	-9187
在香港	-9188
地球的	-9189
地藏王	-9190
坏字符	-9191
基本的	-9192
夏令营	-9193
多样化	-9194
大中型	-9195
大本营	-9196
大贵镞	-9197
天线阵	-9198
奖学金	-9199
如果是	-9200
委托人	-9201
姬存希	-9202
孕妈咪	-9203
学生在	-9204
宣传部	-9205
对方的	-9206
对设备	-9207
导致了	-9208
小时候	-9209
尔多斯	-9210
就这样	-9211
展示了	-9212
工作组	-9213
常态化	-9214
年以上	-9215
年半年	-9216
年春节	-9217
并获得	-9218
并通过	-9219
开展了	-9220
开放的	-9221
引起的	-9222
弹少年	-9223
强度高	-9224
微循环	-9225
志愿者	-9226
性能和	-9227
总数的	-9228
成功的	-9229
成年人	-9230
我们是	-9231
我认为	-9232
打造的	-9233
指数为	-9234
接收器	-9235
提供的	-9236
收获了	-9237
收购了	-9238
效果的	-9239
数学课	-9240
数据的	-9241
新一轮	-9242
新材料	-9243
是一款	-9244
是人类	-9245
是没有	-9246
是通过	-9247
普及率	-9248
最近的	-9249
有一天	-9250
有一定	-9251
有力的	-9252
有机会	-9253
有许多	-9254
有非常	-9255
李成功	-9256
来自于	-9257
杨祖陶	-9258
杰弗森	-9259
柳熙恩	-9260
桶装水	-9261
植物基	-9262
每一位	-9263
比上年	-9264
比如说	-9265
氧化物	-9266
永磁体	-9267
江苏省	-9268
沈阳市	-9269
流行的	-9270
海南省	-9271
润滑油	-9272
烘干机	-9273
焊接网	-9274
熟化机	-9275
特定的	-9276
环境下	-9277
现如今	-9278
理事长	-9279
电子元	-9280
电视机	-9281
白克清	-9282
白城专	-9283
的一份	-9284
的一项	-9285
的交易	-9286
的交通	-9287
的人物	-9288
的作业	-9289
的保护	-9290
的全球	-9291
的关注	-9292
的关系	-9293
的出现	-9294
的勇气	-9295
的孕妇	-9296
的实施	-9297
的小孩	-9298
的成本	-9299
的战略	-9300
的教育	-9301
的文化	-9302
的新型	-9303
的来说	-9304
的生产	-9305
的结合	-9306
的股权	-9307
的色彩	-9308
的部分	-9309
的销售	-9310
的风险	-9311
监督员	-9312
相辉映	-9313
短期内	-9314
碳酸钙	-9315
秘书长	-9316
竞技场	-9317
第二个	-9318
等专业	-9319
等工程	-9320
管理的	-9321
类专业	-9322
系统中	-9323
级职业	-9324
纸护角	-9325
线粒体	-9326
经过了	-9327
经验的	-9328
维度去	-9329
老百姓	-9330
能够在	-9331
莫斯科	-9332
莱佛士	-9333
蔡明介	-9334
蛋白质	-9335
被誉为	-9336
规模为	-9337
规模的	-9338
设计院	-9339
贝多芬	-9340
起到了	-9341
起源于	-9342
身份证	-9343
辽宁省	-9344
迎来了	-9345
还包含	-9346
这一切	-9347
这似乎	-9348
这可能	-9349
连衣裙	-9350
选择的	-9351
都比较	-9352
金钟国	-9353
阶段的	-9354
陈旭源	-9355
霍瓦特	-9356
青柠檬	-9357
面神经	-9358
韩东君	-9359
项目在	-9360
预处理	-9361
领事馆	-9362
领导的	-9363
高素质	-9364
(745	-9365
10%。	-9366
1300	-9367
1991	-9368
Shot	-9369
east	-9370
ford	-9371
illi	-9372
sqrt	-9373
warm	-9374
▁(1)	-9375
▁(2)	-9376
▁(3)	-9377
▁(4)	-9378
▁Com	-9379
▁Inc	-9380
▁the	-9381
▁一点点	-9382
▁不锈钢	-9383
▁什么样	-9384
▁就行了	-9385
▁带你去	-9386
▁开玩笑	-9387
▁旗下的	-9388
▁猕猴桃	-9389
▁看起来	-9390
▁自行车	-9391
一句名言	-9392
上期相比	-9393
不良信用	-9394
专业知识	-9395
专科学校	-9396
严格控制	-9397
严重不足	-9398
中国政府	-9399
中药新药	-9400
为了避免	-9401
了一系列	-9402
亚投行的	-9403
交通运输	-9404
人的生活	-9405
人造草坪	-9406
介绍一下	-9407
以人为本	-9408
会员单位	-9409
作为一种	-9410
先进设备	-9411
全体师生	-9412
全方位的	-9413
全面加强	-9414
公益事业	-9415
兰格钢铁	-9416
关键技术	-9417
准备工作	-9418
加拿大的	-9419
劳动合同	-9420
化学反应	-9421
区教育局	-9422
医疗器械	-9423
单箱批发	-9424
卡罗莱纳	-9425
厂家专业	-9426
原油管道	-9427
参加会议	-9428
双千工程	-9429
发展规划	-9430
发布会上	-9431
受欢迎的	-9432
另一个人	-9433
可以使用	-9434
合作关系	-9435
吸引大量	-9436
吹填工程	-9437
四送一服	-9438
地下隧道	-9439
地条钢等	-9440
城市广场	-9441
外观设计	-9442
大众汽车	-9443
婚纱摄影	-9444
对自己的	-9445
小微企业	-9446
工业生产	-9447
工作效率	-9448
师范大学	-9449
平安小院	-9450
年的发展	-9451
幸福快乐	-9452
广西民族	-9453
应用程序	-9454
应该注意	-9455
建筑能耗	-9456
建设工作	-9457
开火锅店	-9458
式臭氧机	-9459
弹性挡圈	-9460
心理健康	-9461
我们两个	-9462
或多或少	-9463
所在之处	-9464
所带来的	-9465
技术服务	-9466
把我们带	-9467
担保平台	-9468
控股股东	-9469
支援河南	-9470
改革开放	-9471
是什么呢	-9472
智慧旅游	-9473
智慧高速	-9474
更进一步	-9475
有不同的	-9476
有关规定	-9477
本期排名	-9478
某种意义	-9479
气候变化	-9480
氮氧化物	-9481
永远不会	-9482
汽车行业	-9483
油闷大虾	-9484
泌尿外科	-9485
注意事项	-9486
演员请求	-9487
生产工艺	-9488
电力行业	-9489
电动游戏	-9490
电影票房	-9491
疫情期间	-9492
相关部门	-9493
研究开发	-9494
社会主义	-9495
移动搜索	-9496
税控设备	-9497
粉虫微波	-9498
美国政府	-9499
老年游客	-9500
职业技术	-9501
股东大会	-9502
节约能源	-9503
行业发展	-9504
角度来看	-9505
证券日报	-9506
贡献力量	-9507
迅速增长	-9508
这样一个	-9509
这种方法	-9510
鄂尔多斯	-9511
阿里巴巴	-9512
革命先烈	-9513
食品加工	-9514
马戏世界	-9515
高度重视	-9516
黑龙江省	-9517
2015-	-9518
2021〕	-9519
ASICS	-9520
Acton	-9521
Phone	-9522
Power	-9523
ement	-9524
▁2010	-9525
▁2012	-9526
▁与此同时	-9527
上料搅拌车	-9528
个重点城市	-9529
中国工程院	-9530
中国科学院	-9531
中脱颖而出	-9532
交流与合作	-9533
仲裁委员会	-9534
半导体照明	-9535
印刷品广告	-9536
去看的时候	-9537
国家体育场	-9538
地藏王菩萨	-9539
座和处女座	-9540
微型打印机	-9541
担保机构的	-9542
有限定贩售	-9543
未成年人的	-9544
橡胶密封圈	-9545
比上周末涨	-9546
洛杉矶分校	-9547
特大天线阵	-9548
科学研究所	-9549
税控收款机	-9550
穆里尼奥说	-9551
能够有效的	-9552
自动灌装机	-9553
解决问题的	-9554
设计与指导	-9555
足球俱乐部	-9556
进行了深入	-9557
金刚宝座塔	-9558
Turner	-9559
iPhone	-9560
〔2021〕	-9561
不良信用记录	-9562
不锈钢工业管	-9563
全体员工发出	-9564
到了一个新的	-9565
单箱批发均价	-9566
基础设施建设	-9567
广西民族大学	-9568
新冠肺炎疫情	-9569
深圳外环高速	-9570
花境设计施工	-9571
高新技术企业	-9572
lington	-9573
▁微波干燥设备	-9574
中国共产党成立	-9575
供应黄粉虫微波	-9576
凤庆县人民医院	-9577
型证券投资基金	-9578
尤伦斯当今艺术	-9579
级职业资格考试	-9580
聚四氟乙烯垫片	-9581
这句话把我们带	-9582
州大学洛杉矶分校	-9583
演员请求所在之处	-9584
的基本理论和基本	-9585
说过这样一句名言	-9586
阴离子聚丙烯酰胺	-9587
不锈钢扩口式管接头	-9588
到了一个新的维度去	-9589
教育活动设计与指导	-9590
供应黄粉虫微波熟化机	-9591
▁中药资源与开发专业介绍	-9592
厂家专业供应黄粉虫微波熟化机	-9593
到了一个新的维度去思考这个问题	-9594
(“	-9595
,"	-9596
,2	-9597
,8	-9598
-2	-9599
-6	-9600
1:	-9601
1]	-9602
2×	-9603
54	-9604
98	-9605
<=	-9606
?5	-9607
AT	-9608
Bl	-9609
CS	-9610
DC	-9611
EF	-9612
Fr	-9613
IJ	-9614
OS	-9615
SS	-9616
Sp	-9617
TM	-9618
VC	-9619
gr	-9620
ht	-9621
qu	-9622
ry	-9623
th	-9624
ud	-9625
um	-9626
ww	-9627
──	-9628
▁乖	-9629
▁于	-9630
▁亮	-9631
▁介	-9632
▁休	-9633
▁位	-9634
▁偏	-9635
▁催	-9636
▁免	-9637
▁刺	-9638
▁削	-9639
▁区	-9640
▁厚	-9641
▁叔	-9642
▁叶	-9643
▁君	-9644
▁吴	-9645
▁告	-9646
▁呸	-9647
▁呼	-9648
▁嗓	-9649
▁嘤	-9650
▁困	-9651
▁图	-9652
▁土	-9653
▁墨	-9654
▁奇	-9655
▁子	-9656
▁屁	-9657
▁屋	-9658
▁屏	-9659
▁幼	-9660
▁思	-9661
▁恋	-9662
▁惨	-9663
▁惹	-9664
▁所	-9665
▁招	-9666
▁捡	-9667
▁揉	-9668
▁撸	-9669
▁料	-9670
▁晨	-9671
▁曾	-9672
▁杀	-9673
▁橙	-9674
▁沙	-9675
▁波	-9676
▁洋	-9677
▁渣	-9678
▁潜	-9679
▁灵	-9680
▁燕	-9681
▁犯	-9682
▁痘	-9683
▁矮	-9684
▁砸	-9685
▁碎	-9686
▁磨	-9687
▁社	-9688
▁米	-9689
▁系	-9690
▁职	-9691
▁节	-9692
▁若	-9693
▁落	-9694
▁蛮	-9695
▁迎	-9696
▁逃	-9697
▁造	-9698
▁醉	-9699
▁野	-9700
▁闺	-9701
▁阳	-9702
▁阴	-9703
▁雾	-9704
▁霾	-9705
▁韬	-9706
▁骑	-9707
。)	-9708
。4	-9709
一事	-9710
一浪	-9711
万港	-9712
三名	-9713
三百	-9714
上司	-9715
上帝	-9716
上方	-9717
上最	-9718
上演	-9719
上班	-9720
上门	-9721
下架	-9722
下调	-9723
不一	-9724
不佳	-9725
不在	-9726
不已	-9727
不成	-9728
不时	-9729
不求	-9730
不清	-9731
不让	-9732
不高	-9733
与三	-9734
与人	-9735
与伦	-9736
与大	-9737
专场	-9738
两台	-9739
严峻	-9740
严苛	-9741
中东	-9742
中可	-9743
中庭	-9744
中海	-9745
中甲	-9746
中等	-9747
中联	-9748
临沂	-9749
为我	-9750
为期	-9751
主干	-9752
义的	-9753
之忧	-9754
之时	-9755
之美	-9756
乐普	-9757
乐趣	-9758
乒乓	-9759
乙级	-9760
也叫	-9761
买卖	-9762
了三	-9763
了这	-9764
事儿	-9765
事宜	-9766
事实	-9767
二七	-9768
五保	-9769
五花	-9770
交替	-9771
亲切	-9772
亲情	-9773
人均	-9774
人大	-9775
人社	-9776
人都	-9777
亿度	-9778
今晚	-9779
从远	-9780
以防	-9781
仿真	-9782
伊博	-9783
众生	-9784
优选	-9785
优雅	-9786
会被	-9787
传说	-9788
传达	-9789
但这	-9790
低端	-9791
体重	-9792
作了	-9793
作好	-9794
你想	-9795
你能	-9796
保税	-9797
信任	-9798
修辞	-9799
俱增	-9800
倒计	-9801
假期	-9802
做事	-9803
做的	-9804
储存	-9805
元通	-9806
光泽	-9807
克力	-9808
克罗	-9809
党政	-9810
入场	-9811
全年	-9812
全是	-9813
全校	-9814
全能	-9815
八年	-9816
八门	-9817
公寓	-9818
公署	-9819
兰州	-9820
关门	-9821
其余	-9822
典范	-9823
内径	-9824
冰灯	-9825
冲动	-9826
决于	-9827
减资	-9828
凯奇	-9829
出于	-9830
出嫁	-9831
出门	-9832
刀剑	-9833
分仓	-9834
分成	-9835
分支	-9836
分级	-9837
切入	-9838
列车	-9839
删除	-9840
利昂	-9841
利率	-9842
到县	-9843
到场	-9844
制做	-9845
刹车	-9846
剂和	-9847
削减	-9848
剥离	-9849
剧中	-9850
副架	-9851
办事	-9852
动手	-9853
动机	-9854
助于	-9855
助手	-9856
包围	-9857
化品	-9858
北四	-9859
十余	-9860
十六	-9861
南北	-9862
南宁	-9863
南非	-9864
卡洛	-9865
卫视	-9866
厌氧	-9867
原住	-9868
厨房	-9869
去做	-9870
去想	-9871
去皮	-9872
又声	-9873
双层	-9874
反弹	-9875
反而	-9876
发掘	-9877
取代	-9878
受阻	-9879
可为	-9880
可供	-9881
可怕	-9882
吃了	-9883
吃的	-9884
各方	-9885
合力	-9886
合数	-9887
合浦	-9888
吉客	-9889
同名	-9890
同年	-9891
后再	-9892
后台	-9893
后移	-9894
吸入	-9895
吹塑	-9896
呆萌	-9897
呈示	-9898
周玉	-9899
呼吁	-9900
和你	-9901
和水	-9902
和花	-9903
和风	-9904
品尝	-9905
商的	-9906
商量	-9907
喜悦	-9908
器官	-9909
四种	-9910
四载	-9911
回复	-9912
国人	-9913
国奥	-9914
国少	-9915
国旗	-9916
在本	-9917
地图	-9918
地暖	-9919
坦言	-9920
垄断	-9921
型式	-9922
基准	-9923
墨尔	-9924
声器	-9925
声的	-9926
处在	-9927
外的	-9928
外线	-9929
多重	-9930
夜的	-9931
夜间	-9932
大人	-9933
大概	-9934
大片	-9935
天窗	-9936
夫妻	-9937
夯实	-9938
奖项	-9939
套装	-9940
女人	-9941
如有	-9942
婚礼	-9943
嫌疑	-9944
孀妇	-9945
季洪	-9946
孤寡	-9947
守岛	-9948
安庆	-9949
宋朝	-9950
官员	-9951
宝石	-9952
实事	-9953
实质	-9954
宣恩	-9955
宴请	-9956
家乡	-9957
对他	-9958
对应	-9959
对该	-9960
寺庙	-9961
寻常	-9962
导电	-9963
封信	-9964
封闭	-9965
尊敬	-9966
小康	-9967
小玲	-9968
少了	-9969
少女	-9970
尚需	-9971
尤为	-9972
就此	-9973
尼亚	-9974
局面	-9975
山羊	-9976
工地	-9977
市长	-9978
布展	-9979
师姐	-9980
帝国	-9981
带教	-9982
带货	-9983
常温	-9984
干扰	-9985
平静	-9986
年三	-9987
年初	-9988
年均	-9989
年是	-9990
应变	-9991
度过	-9992
廉价	-9993
开业	-9994
开工	-9995
异形	-9996
引人	-9997
强迫	-9998
归来	-9999
归纳	-10000
当日	-10001
录音	-10002
彩票	-10003
征询	-10004
很棒	-10005
得好	-10006
得益	-10007
微博	-10008
德森	-10009
德里	-10010
急速	-10011
性价	-10012
性诱	-10013
总局	-10014
恰恰	-10015
恶化	-10016
悟空	-10017
悠久	-10018
情形	-10019
惊人	-10020
惊喜	-10021
惊艳	-10022
感和	-10023
慎重	-10024
慢性	-10025
成品	-10026
成败	-10027
我县	-10028
战士	-10029
手中	-10030
扎克	-10031
打工	-10032
扩张	-10033
扫码	-10034
投影	-10035
投身	-10036
抗议	-10037
抢先	-10038
报到	-10039
抹茶	-10040
拉动	-10041
拉近	-10042
拓张	-10043
招收	-10044
拜访	-10045
拟订	-10046
拿下	-10047
指南	-10048
挥发	-10049
排出	-10050
推介	-10051
提及	-10052
摄取	-10053
操纵	-10054
支出	-10055
支教	-10056
收割	-10057
收官	-10058
收盘	-10059
政协	-10060
效力	-10061
效的	-10062
救援	-10063
教材	-10064
整场	-10065
文献	-10066
斗争	-10067
斯和	-10068
斯拉	-10069
新老	-10070
方可	-10071
旅客	-10072
旋转	-10073
无人	-10074
无奈	-10075
无机	-10076
无轨	-10077
既是	-10078
既有	-10079
日止	-10080
日程	-10081
日趋	-10082
早在	-10083
时装	-10084
时长	-10085
明日	-10086
星的	-10087
是大	-10088
普顿	-10089
景色	-10090
晶晶	-10091
更快	-10092
更能	-10093
曾在	-10094
月亮	-10095
有意	-10096
有缘	-10097
朗普	-10098
望远	-10099
木错	-10100
本报	-10101
机电	-10102
杀出	-10103
杂质	-10104
李群	-10105
李默	-10106
来水	-10107
杭叉	-10108
松漠	-10109
极具	-10110
构件	-10111
林沟	-10112
标明	-10113
标赛	-10114
树叶	-10115
树脂	-10116
样式	-10117
格式	-10118
格律	-10119
案的	-10120
桥牌	-10121
桥面	-10122
欧冠	-10123
欧氏	-10124
正好	-10125
步骤	-10126
母站	-10127
每一	-10128
比的	-10129
毫无	-10130
民政	-10131
民生	-10132
气息	-10133
气流	-10134
气神	-10135
氨基	-10136
水人	-10137
求生	-10138
汉考	-10139
沉迷	-10140
沙龙	-10141
法定	-10142
法案	-10143
法治	-10144
波浪	-10145
泥沙	-10146
流产	-10147
流砥	-10148
测验	-10149
浓度	-10150
浓缩	-10151
涉军	-10152
淘宝	-10153
淘汰	-10154
混改	-10155
渐进	-10156
湖人	-10157
溶解	-10158
滋味	-10159
演技	-10160
演讲	-10161
激情	-10162
灯具	-10163
灾难	-10164
点评	-10165
烈士	-10166
烟雾	-10167
热量	-10168
焦点	-10169
煤气	-10170
照射	-10171
煮熟	-10172
熟练	-10173
牢固	-10174
独生	-10175
猛龙	-10176
玫瑰	-10177
现将	-10178
球馆	-10179
理工	-10180
琵琶	-10181
生机	-10182
用到	-10183
用油	-10184
田园	-10185
田径	-10186
申诉	-10187
电线	-10188
电能	-10189
留下	-10190
疑难	-10191
痕迹	-10192
白砂	-10193
白糖	-10194
百家	-10195
百货	-10196
百道	-10197
的单	-10198
的精	-10199
的船	-10200
监护	-10201
盛会	-10202
相继	-10203
相较	-10204
省委	-10205
看了	-10206
看似	-10207
看法	-10208
眼病	-10209
着手	-10210
矫顽	-10211
短缺	-10212
石材	-10213
石窟	-10214
矿产	-10215
矿石	-10216
破碎	-10217
硬化	-10218
确立	-10219
示波	-10220
祈求	-10221
祝贺	-10222
离队	-10223
科大	-10224
稀缺	-10225
程纪	-10226
穿梭	-10227
突围	-10228
立交	-10229
立志	-10230
笑了	-10231
笔记	-10232
等到	-10233
等各	-10234
简介	-10235
简直	-10236
粉笔	-10237
精密	-10238
精美	-10239
糟糕	-10240
紧凑	-10241
纪委	-10242
线性	-10243
练习	-10244
细分	-10245
细度	-10246
经久	-10247
绕城	-10248
给他	-10249
给你	-10250
给我	-10251
绝缘	-10252
绩效	-10253
编织	-10254
美金	-10255
耀国	-10256
而来	-10257
而知	-10258
聊天	-10259
联手	-10260
肌肉	-10261
胶料	-10262
能使	-10263
能做	-10264
脂肪	-10265
脖子	-10266
脚步	-10267
脸型	-10268
自组	-10269
自觉	-10270
致辞	-10271
般的	-10272
色泽	-10273
节点	-10274
苏锐	-10275
荒漠	-10276
莎士	-10277
菊花	-10278
萤幕	-10279
蓝图	-10280
薪酬	-10281
蛋糕	-10282
螺纹	-10283
行人	-10284
行情	-10285
褪黑	-10286
西南	-10287
观光	-10288
观赏	-10289
认定	-10290
让她	-10291
记得	-10292
讲究	-10293
讲话	-10294
诊治	-10295
诞生	-10296
说了	-10297
读者	-10298
调速	-10299
谈到	-10300
谢成	-10301
负于	-10302
账号	-10303
贴近	-10304
赚钱	-10305
走上	-10306
走势	-10307
赶快	-10308
超大	-10309
踏实	-10310
身心	-10311
身的	-10312
躺在	-10313
车祸	-10314
轧卷	-10315
轨迹	-10316
转到	-10317
转载	-10318
轴承	-10319
较好	-10320
辅路	-10321
辉煌	-10322
辖区	-10323
达线	-10324
迄今	-10325
过硬	-10326
迈向	-10327
近似	-10328
还应	-10329
还没	-10330
这将	-10331
进军	-10332
进球	-10333
违背	-10334
连结	-10335
退出	-10336
造价	-10337
遍布	-10338
避难	-10339
部落	-10340
都与	-10341
配音	-10342
采样	-10343
重围	-10344
重建	-10345
金某	-10346
钢板	-10347
钥匙	-10348
长安	-10349
长寿	-10350
长远	-10351
门槛	-10352
门票	-10353
闪耀	-10354
闭馆	-10355
问世	-10356
问卷	-10357
问答	-10358
问询	-10359
阵营	-10360
阶梯	-10361
阻力	-10362
陀枪	-10363
院所	-10364
除夕	-10365
除尘	-10366
除开	-10367
除非	-10368
随机	-10369
雷克	-10370
震撼	-10371
震荡	-10372
非法	-10373
韩丁	-10374
颁布	-10375
预警	-10376
领馆	-10377
频繁	-10378
频谱	-10379
风控	-10380
饭店	-10381
饼干	-10382
馒头	-10383
验收	-10384
高职	-10385
魔幻	-10386
鲁史	-10387
鲁苏	-10388
鲜花	-10389
龙舟	-10390
龙虾	-10391
%),	-10392
,30	-10393
1%,	-10394
1.2	-10395
11.	-10396
129	-10397
158	-10398
15”	-10399
2.8	-10400
3%,	-10401
3%。	-10402
309	-10403
50.	-10404
55%	-10405
6.5	-10406
60%	-10407
7.5	-10408
80%	-10409
CCA	-10410
FRB	-10411
GEL	-10412
IPO	-10413
IPT	-10414
Low	-10415
NIT	-10416
PBS	-10417
Sib	-10418
UPC	-10419
Wor	-10420
act	-10421
aff	-10422
asb	-10423
ass	-10424
con	-10425
hou	-10426
ies	-10427
ily	-10428
ith	-10429
man	-10430
nov	-10431
ode	-10432
ram	-10433
ric	-10434
ung	-10435
ust	-10436
▁6.	-10437
▁DB	-10438
▁一场	-10439
▁一大	-10440
▁一家	-10441
▁一路	-10442
▁一边	-10443
▁一遍	-10444
▁一顿	-10445
▁上天	-10446
▁下周	-10447
▁下雪	-10448
▁不可	-10449
▁不断	-10450
▁不服	-10451
▁不见	-10452
▁之类	-10453
▁也许	-10454
▁习惯	-10455
▁买个	-10456
▁仔细	-10457
▁他的	-10458
▁价格	-10459
▁使用	-10460
▁保温	-10461
▁做梦	-10462
▁偶像	-10463
▁偷偷	-10464
▁全部	-10465
▁其次	-10466
▁具体	-10467
▁内容	-10468
▁再也	-10469
▁冬天	-10470
▁几年	-10471
▁分钟	-10472
▁初中	-10473
▁加入	-10474
▁区别	-10475
▁升级	-10476
▁半夜	-10477
▁厕所	-10478
▁去过	-10479
▁反应	-10480
▁后天	-10481
▁吓人	-10482
▁吓死	-10483
▁吸引	-10484
▁哼哼	-10485
▁围脖	-10486
▁城管	-10487
▁外卖	-10488
▁太多	-10489
▁太阳	-10490
▁奇怪	-10491
▁女子	-10492
▁好滴	-10493
▁好点	-10494
▁宜昌	-10495
▁实现	-10496
▁实际	-10497
▁室内	-10498
▁小学	-10499
▁少女	-10500
▁少年	-10501
▁尴尬	-10502
▁展览	-10503
▁工业	-10504
▁工资	-10505
▁师兄	-10506
▁师姐	-10507
▁平台	-10508
▁年纪	-10509
▁并且	-10510
▁异地	-10511
▁当前	-10512
▁很棒	-10513
▁怎样	-10514
▁意外	-10515
▁感受	-10516
▁懂得	-10517
▁成绩	-10518
▁我爸	-10519
▁所谓	-10520
▁打开	-10521
▁打扰	-10522
▁找个	-10523
▁接触	-10524
▁文化	-10525
▁既然	-10526
▁日子	-10527
▁早起	-10528
▁更新	-10529
▁最新	-10530
▁有事	-10531
▁机器	-10532
▁机票	-10533
▁果然	-10534
▁毫米	-10535
▁没得	-10536
▁没用	-10537
▁泰国	-10538
▁消息	-10539
▁演技	-10540
▁版权	-10541
▁特点	-10542
▁猴子	-10543
▁环境	-10544
▁的确	-10545
▁皮肤	-10546
▁神奇	-10547
▁第四	-10548
▁简单	-10549
▁纠结	-10550
▁美的	-10551
▁老铁	-10552
▁考完	-10553
▁职高	-10554
▁脑子	-10555
▁脱单	-10556
▁舒服	-10557
▁英国	-10558
▁见面	-10559
▁貌似	-10560
▁超市	-10561
▁跟着	-10562
▁路过	-10563
▁过分	-10564
▁这件	-10565
▁追星	-10566
▁重新	-10567
▁防晒	-10568
▁降温	-10569
▁零食	-10570
▁青岛	-10571
▁韩国	-10572
▁音乐	-10573
▁香蕉	-10574
▁黑色	-10575
。12	-10576
。2、	-10577
万平方	-10578
万港元	-10579
万达弘	-10580
上一层	-10581
上半场	-10582
下半场	-10583
下降了	-10584
下面的	-10585
不一定	-10586
不仅能	-10587
不会有	-10588
不匹配	-10589
不可能	-10590
不喜欢	-10591
与其他	-10592
与实践	-10593
与环境	-10594
中之重	-10595
中使用	-10596
中国驻	-10597
中心化	-10598
中药药	-10599
为自己	-10600
主持人	-10601
主流的	-10602
义工联	-10603
之前的	-10604
也需要	-10605
了一份	-10606
了解了	-10607
二等奖	-10608
云计算	-10609
亚当斯	-10610
产业集	-10611
产学研	-10612
仍然是	-10613
他认为	-10614
以确保	-10615
以至于	-10616
以质量	-10617
会产生	-10618
会发生	-10619
会导致	-10620
但现在	-10621
体育馆	-10622
保持了	-10623
倒计时	-10624
元素的	-10625
兄弟连	-10626
充满了	-10627
党中央	-10628
党委副	-10629
入口处	-10630
全行业	-10631
全面的	-10632
公交站	-10633
具体的	-10634
内马尔	-10635
凝聚力	-10636
分别是	-10637
分手后	-10638
分析了	-10639
创作的	-10640
创作者	-10641
创立于	-10642
创造了	-10643
判定为	-10644
利昂贝	-10645
前提下	-10646
副主席	-10647
功能的	-10648
匆匆那	-10649
化进程	-10650
北四环	-10651
区政府	-10652
十四日	-10653
十年来	-10654
千万元	-10655
华国际	-10656
南阳市	-10657
危化品	-10658
即使是	-10659
即日起	-10660
参与了	-10661
参与的	-10662
参加者	-10663
又一次	-10664
及以上	-10665
发现了	-10666
只需要	-10667
可以用	-10668
可穿戴	-10669
可能在	-10670
可选择	-10671
吃火锅	-10672
吉客云	-10673
同时还	-10674
向下游	-10675
向资本	-10676
听取了	-10677
告诉我	-10678
周玉杰	-10679
和专业	-10680
和城市	-10681
和完善	-10682
和提高	-10683
和旅游	-10684
和母亲	-10685
和研究	-10686
和维护	-10687
唐氏症	-10688
团成员	-10689
固定在	-10690
国家大	-10691
国少队	-10692
国籍的	-10693
国际化	-10694
在一定	-10695
在世界	-10696
在他的	-10697
在家里	-10698
在我们	-10699
在设计	-10700
在选择	-10701
坐落于	-10702
坚实的	-10703
基金数	-10704
墨尔本	-10705
大家庭	-10706
大家族	-10707
大家的	-10708
天文台	-10709
奠定了	-10710
季洪旭	-10711
它不仅	-10712
完美的	-10713
宝鸡市	-10714
实践中	-10715
密封性	-10716
对中国	-10717
对产品	-10718
对我国	-10719
小丽的	-10720
小火车	-10721
就会有	-10722
就已经	-10723
就必须	-10724
就没有	-10725
就需要	-10726
展开了	-10727
展现出	-10728
展览会	-10729
山西省	-10730
左右的	-10731
布鲁克	-10732
希望能	-10733
干细胞	-10734
平台和	-10735
年中国	-10736
并不能	-10737
广交会	-10738
广州市	-10739
库存量	-10740
庞大的	-10741
建成后	-10742
建立起	-10743
建筑师	-10744
开启了	-10745
开设了	-10746
张一白	-10747
强度和	-10748
当时的	-10749
影响了	-10750
很明显	-10751
心内科	-10752
性研究	-10753
总承包	-10754
总销量	-10755
情况和	-10756
意志力	-10757
慎重的	-10758
我们对	-10759
扬声器	-10760
抓住了	-10761
拖车员	-10762
指导下	-10763
指的是	-10764
接下去	-10765
接近于	-10766
控股的	-10767
推出了	-10768
推出的	-10769
描绘了	-10770
插画家	-10771
擅长以	-10772
改变了	-10773
故事的	-10774
教研室	-10775
散热器	-10776
敬老院	-10777
整体上	-10778
新世纪	-10779
新北市	-10780
新时期	-10781
新项目	-10782
旅行团	-10783
无疑是	-10784
日凌晨	-10785
日召开	-10786
是国家	-10787
是我的	-10788
是目前	-10789
是直接	-10790
是需要	-10791
更多人	-10792
有三个	-10793
有必要	-10794
有成效	-10795
朋友圈	-10796
服务于	-10797
望远镜	-10798
本公司	-10799
本年度	-10800
本赛季	-10801
李默然	-10802
来进行	-10803
杨教授	-10804
极大地	-10805
柳林沟	-10806
标识符	-10807
欧洲锦	-10808
正确的	-10809
水系统	-10810
没想到	-10811
流媒体	-10812
流砥柱	-10813
济大学	-10814
煤地区	-10815
特朗普	-10816
特点是	-10817
独孤明	-10818
现在有	-10819
由于其	-10820
由资产	-10821
电影和	-10822
的专家	-10823
的事迹	-10824
的使命	-10825
的侵蚀	-10826
的儿子	-10827
的双重	-10828
的团队	-10829
的培养	-10830
的完美	-10831
的市场	-10832
的形状	-10833
的意见	-10834
的感情	-10835
的方向	-10836
的有效	-10837
的材质	-10838
的比赛	-10839
的热情	-10840
的理想	-10841
的社会	-10842
的科学	-10843
的积极	-10844
的移动	-10845
的空间	-10846
的美术	-10847
的能量	-10848
的节能	-10849
的营养	-10850
的话题	-10851
的费用	-10852
的身体	-10853
目前只	-10854
目前已	-10855
目标是	-10856
直辖市	-10857
相反的	-10858
相当于	-10859
看到了	-10860
矫顽力	-10861
研发出	-10862
示范区	-10863
科学与	-10864
租车员	-10865
程度高	-10866
突出的	-10867
第三名	-10868
第三方	-10869
第三者	-10870
等产业	-10871
等信息	-10872
等多项	-10873
等情况	-10874
等方式	-10875
精气神	-10876
纪录片	-10877
纳木错	-10878
组成员	-10879
经历了	-10880
经济学	-10881
经销商	-10882
结束了	-10883
结束的	-10884
美国动	-10885
老字号	-10886
而这些	-10887
耐腐蚀	-10888
聚乙烯	-10889
股东的	-10890
能源局	-10891
致大海	-10892
舒适度	-10893
艾德蒙	-10894
花白砂	-10895
获得者	-10896
蓄电池	-10897
蔡校长	-10898
蛋皮机	-10899
表面上	-10900
被罚款	-10901
规模将	-10902
解决了	-10903
讲述了	-10904
许可证	-10905
证件的	-10906
象征着	-10907
财政部	-10908
贾小玲	-10909
资金的	-10910
超声波	-10911
足球的	-10912
跨地区	-10913
转化成	-10914
转变为	-10915
转变的	-10916
软硬件	-10917
较多的	-10918
过去了	-10919
近几年	-10920
还具有	-10921
这一次	-10922
进入了	-10923
进行复	-10924
进行的	-10925
通过对	-10926
重要性	-10927
针对性	-10928
问题和	-10929
需求的	-10930
青年人	-10931
非常高	-10932
首先要	-10933
高成长	-10934
黑刚玉	-10935
****	-10936
0.59	-10937
1-10	-10938
102.	-10939
1080	-10940
1980	-10941
1995	-10942
2003	-10943
33%,	-10944
50%,	-10945
6063	-10946
FIPS	-10947
LOGO	-10948
Mate	-10949
NIPT	-10950
UNIT	-10951
elop	-10952
ight	-10953
nova	-10954
uasb	-10955
▁(6)	-10956
▁3、5	-10957
▁Man	-10958
▁dev	-10959
▁new	-10960
▁前两天	-10961
▁半小时	-10962
▁受不了	-10963
▁吃火锅	-10964
▁好开心	-10965
▁对不起	-10966
▁小姑娘	-10967
▁巧克力	-10968
▁年轻人	-10969
▁很漂亮	-10970
▁情人节	-10971
▁本专业	-10972
▁谈恋爱	-10973
▁这辈子	-10974
▁那就好	-10975
上市以来	-10976
不一样的	-10977
不断优化	-10978
不断加强	-10979
不断增加	-10980
不确定性	-10981
专家团队	-10982
世界各国	-10983
业务提供	-10984
东鹏饮料	-10985
严格按照	-10986
中国协会	-10987
中国古代	-10988
中国游客	-10989
中国球迷	-10990
中心妇产	-10991
中超联赛	-10992
为代表的	-10993
为您提供	-10994
主要包括	-10995
主要学习	-10996
主题活动	-10997
买保健品	-10998
五花八门	-10999
交通安全	-11000
交通管制	-11001
产业基地	-11002
产业格局	-11003
产业结构	-11004
产品放心	-11005
产品终端	-11006
人民卫生	-11007
人民生活	-11008
仔细观察	-11009
代理机构	-11010
令人期待	-11011
仪器仪表	-11012
但净利润	-11013
体育中心	-11014
体育协会	-11015
供热温度	-11016
信息发布	-11017
克罗地亚	-11018
全面实施	-11019
公共场所	-11020
公共设施	-11021
公司拥有	-11022
公告显示	-11023
公安机关	-11024
公开招聘	-11025
共享资源	-11026
共同发展	-11027
关键楼宇	-11028
冰灯冰雕	-11029
净化材料	-11030
准入条件	-11031
出现白斑	-11032
创新设计	-11033
包括艺人	-11034
化学疗法	-11035
北京摄影	-11036
华凯创意	-11037
博士学位	-11038
印刷耗材	-11039
历史文化	-11040
历史新高	-11041
发布公告	-11042
可以分为	-11043
可以降低	-11044
同比下降	-11045
同比增加	-11046
吐槽大会	-11047
吸塑工艺	-11048
咨询服务	-11049
品牌如何	-11050
因为我们	-11051
园林绿化	-11052
围护部件	-11053
固体废物	-11054
国家电网	-11055
国际贸易	-11056
城市建设	-11057
基础理论	-11058
塞尔建筑	-11059
大力发展	-11060
大大提升	-11061
天宝四载	-11062
如果想要	-11063
学生提供	-11064
学院教授	-11065
安全问题	-11066
安全防范	-11067
宣传推广	-11068
对外开放	-11069
小伙伴们	-11070
就可以了	-11071
就是一种	-11072
就是因为	-11073
工作环境	-11074
工程材料	-11075
市政工程	-11076
布局方式	-11077
平均水平	-11078
年世界杯	-11079
广大群众	-11080
广泛使用	-11081
建成通车	-11082
开发银行	-11083
弹少年团	-11084
影响力的	-11085
征求意见	-11086
息息相关	-11087
感受到了	-11088
我们希望	-11089
我们还要	-11090
户外广告	-11091
房屋建筑	-11092
技术人才	-11093
技术开发	-11094
拒绝接受	-11095
持续增长	-11096
摆线针轮	-11097
数据统计	-11098
新冠病毒	-11099
新建住宅	-11100
新闻媒体	-11101
明确指出	-11102
是一家集	-11103
智能设备	-11104
暂行办法	-11105
服务企业	-11106
服务实体	-11107
检验检测	-11108
楼阁式塔	-11109
正在进行	-11110
正常工作	-11111
治理体系	-11112
注册资本	-11113
洋河学院	-11114
浙江绿城	-11115
海外市场	-11116
海洋文学	-11117
深圳证券	-11118
渝长高速	-11119
烤漆设备	-11120
独特魅力	-11121
环境污染	-11122
生产流程	-11123
生产能力	-11124
生活习惯	-11125
电动汽车	-11126
电子商务	-11127
电液伺服	-11128
男性角色	-11129
疾病预防	-11130
的倡议书	-11131
的小故事	-11132
相关内容	-11133
短时间内	-11134
研究对象	-11135
研究方向	-11136
磁体表面	-11137
神马搜索	-11138
移动通信	-11139
程纪州的	-11140
稳步增长	-11141
突发事件	-11142
突围而出	-11143
第一季度	-11144
等一系列	-11145
管理办法	-11146
经营范围	-11147
缠绕垫片	-11148
职业教育	-11149
联系方式	-11150
自动化的	-11151
莎士比亚	-11152
蔬菜价格	-11153
藏式家具	-11154
被认为是	-11155
装饰效果	-11156
计划生育	-11157
课堂教学	-11158
调研论证	-11159
资源共享	-11160
跨境电商	-11161
还有一个	-11162
这个网站	-11163
这件事情	-11164
进口商品	-11165
迷你世界	-11166
重中之重	-11167
重要作用	-11168
金融机构	-11169
钢丝网片	-11170
铸铁砝码	-11171
销售原则	-11172
长荣集团	-11173
陀枪师姐	-11174
需要我们	-11175
青藏高原	-11176
非常大的	-11177
非常好的	-11178
面向未来	-11179
项目资金	-11180
食品行业	-11181
高端项目	-11182
鼓励品牌	-11183
10000	-11184
2020-	-11185
2021》	-11186
ASTON	-11187
Boyer	-11188
inger	-11189
orpor	-11190
~2018	-11191
▁2011	-11192
▁2016	-11193
▁Borg	-11194
▁Tech	-11195
▁Yout	-11196
▁call	-11197
▁圣诞快乐	-11198
▁好久不见	-11199
▁网络上的	-11200
、0.53	-11201
。2010	-11202
。2020	-11203
上海自贸区	-11204
为客户提供	-11205
为用户提供	-11206
了我的疑惑	-11207
产业的发展	-11208
产业链延伸	-11209
今年上半年	-11210
以吸引大量	-11211
体育木地板	-11212
党委副书记	-11213
公交大都市	-11214
公司总经理	-11215
具有一定的	-11216
养成良好的	-11217
分拆子公司	-11218
办公楼项目	-11219
北新路桥在	-11220
厌氧反应器	-11221
及相关电子	-11222
可持续发展	-11223
可穿戴设备	-11224
各式各样的	-11225
向资本经营	-11226
大隈公司的	-11227
太阳能屋顶	-11228
存在的问题	-11229
安全性保密	-11230
宝箧印式塔	-11231
带着这句话	-11232
幸福大本营	-11233
微信小程序	-11234
慎重的审视	-11235
战火兄弟连	-11236
曝光率大增	-11237
最重要的是	-11238
桥式起重机	-11239
欧洲锦标赛	-11240
水平的提高	-11241
济宁臭氧机	-11242
海外旗舰店	-11243
涉军黑名单	-11244
深圳市前海	-11245
清洗过滤器	-11246
火力发电厂	-11247
由资产经营	-11248
电动自行车	-11249
电子元器件	-11250
的发展战略	-11251
的大力支持	-11252
空气净化器	-11253
经营项目是	-11254
计算机软件	-11255
足球运动员	-11256
这似乎解答	-11257
进一步提高	-11258
部门负责人	-11259
采访时表示	-11260
食品行业的	-11261
Chrome	-11262
eyeast	-11263
keting	-11264
▁Mesos	-11265
▁中学毕业生	-11266
▁微波烘干机	-11267
▁猕猴桃里面	-11268
为公司向下游	-11269
企业定制礼品	-11270
做网站的费用	-11271
党史学习教育	-11272
净利润分别为	-11273
北新路桥上市	-11274
南阳市体育局	-11275
卡罗莱纳大学	-11276
卫星导航系统	-11277
增持公司股票	-11278
处于转型升级	-11279
宣传五花八门	-11280
工业生产指数	-11281
帕德博恩大学	-11282
感应加热线圈	-11283
我们还要更加	-11284
拓展高速公路	-11285
教育贫困地区	-11286
期货交易价格	-11287
校园文化建设	-11288
洗手高效利用	-11289
海外婚纱摄影	-11290
渝长高速公路	-11291
环境保护税法	-11292
环氧磨石地坪	-11293
白癜风的治疗	-11294
管理体系认证	-11295
航空航天大学	-11296
赛季中超联赛	-11297
运营业务提供	-11298
陕西省西安市	-11299
高速公路建设	-11300
Sibling	-11301
▁Docker	-11302
▁不锈钢工业管	-11303
上一次出现位置	-11304
人民卫生出版社	-11305
公路工程招投标	-11306
国家体育场北路	-11307
塞尔建筑事务所	-11308
广西毕业生就业	-11309
技术研发事业部	-11310
摆线针轮减速机	-11311
方面去看的时候	-11312
模组式智能手机	-11313
电子式储蓄国债	-11314
的要求越来越高	-11315
的重要组成部分	-11316
科技企业孵化器	-11317
视觉科学研究所	-11318
Elington	-11319
elopment	-11320
▁旗下的网络红人	-11321
上期相比本期排名	-11322
产品放心合作伙伴	-11323
人类命运共同体的	-11324
令品牌曝光率大增	-11325
品牌如何突围而出	-11326
在校女研究生比例	-11327
工程材料有限公司	-11328
提升公司盈利能力	-11329
目前只有限定贩售	-11330
移动通信产品终端	-11331
行业信用优级企业	-11332
集团股份有限公司	-11333
高价值产业链延伸	-11334
▁Youtuber	-11335
▁国家林业和草原局	-11336
加州大学洛杉矶分校	-11337
危险化学品安全生产	-11338
向公司全体员工发出	-11339
庆祝中国共产党成立	-11340
慎重的审视这个问题	-11341
提升公司的盈利能力	-11342
不锈钢扩口式管接头时	-11343
及相关电子产品的生产	-11344
增持公司股票的倡议书	-11345
由资产经营向资本经营	-11346
运营业务提供有力支撑	-11347
这似乎解答了我的疑惑	-11348
予州化工技术研发事业部	-11349
集成电路产业和软件产业	-11350
▁旗下的网络红人包括艺人	-11351
净化材料产品放心合作伙伴	-11352
卡罗莱纳大学格林斯波洛分校	-11353
为公司向下游高价值产业链延伸	-11354
我们还要更加慎重的审视这个问题	-11355
拓展高速公路运营业务提供有力支撑	-11356
(2	-11357
([	-11358
+1	-11359
,7	-11360
,9	-11361
1,	-11362
2》	-11363
3,	-11364
4,	-11365
71	-11366
9、	-11367
:(	-11368
:2	-11369
:4	-11370
:7	-11371
?3	-11372
Be	-11373
CC	-11374
DB	-11375
IA	-11376
ID	-11377
IV	-11378
In	-11379
MI	-11380
Ma	-11381
Mc	-11382
RA	-11383
SP	-11384
TS	-11385
])	-11386
],	-11387
]。	-11388
ff	-11389
km	-11390
ri	-11391
sh	-11392
ul	-11393
··	-11394
”:	-11395
▁&	-11396
▁/	-11397
▁@	-11398
▁X	-11399
▁w	-11400
▁★	-11401
▁专	-11402
▁丫	-11403
▁主	-11404
▁互	-11405
▁亚	-11406
▁些	-11407
▁份	-11408
▁值	-11409
▁党	-11410
▁兰	-11411
▁冻	-11412
▁凶	-11413
▁剩	-11414
▁勤	-11415
▁化	-11416
▁厨	-11417
▁右	-11418
▁咸	-11419
▁唯	-11420
▁嗷	-11421
▁嘎	-11422
▁圆	-11423
▁夏	-11424
▁央	-11425
▁妈	-11426
▁妞	-11427
▁妮	-11428
▁姑	-11429
▁娃	-11430
▁嫂	-11431
▁导	-11432
▁巨	-11433
▁忧	-11434
▁忽	-11435
▁怎	-11436
▁愿	-11437
▁截	-11438
▁拼	-11439
▁挣	-11440
▁掏	-11441
▁攻	-11442
▁散	-11443
▁数	-11444
▁断	-11445
▁晕	-11446
▁暗	-11447
▁服	-11448
▁材	-11449
▁松	-11450
▁标	-11451
▁桌	-11452
▁榴	-11453
▁毒	-11454
▁淡	-11455
▁混	-11456
▁潮	-11457
▁煎	-11458
▁物	-11459
▁狠	-11460
▁珠	-11461
▁痒	-11462
▁盖	-11463
▁矜	-11464
▁种	-11465
▁穷	-11466
▁立	-11467
▁答	-11468
▁粑	-11469
▁糖	-11470
▁纯	-11471
▁终	-11472
▁经	-11473
▁羊	-11474
▁耳	-11475
▁耶	-11476
▁聚	-11477
▁肿	-11478
▁胸	-11479
▁腊	-11480
▁艾	-11481
▁虐	-11482
▁虾	-11483
▁衣	-11484
▁贼	-11485
▁赢	-11486
▁跪	-11487
▁蹭	-11488
▁轻	-11489
▁遥	-11490
▁郑	-11491
▁酒	-11492
▁采	-11493
▁锅	-11494
▁闭	-11495
▁隐	-11496
▁馀	-11497
▁麦	-11498
▁鼻	-11499
、1	-11500
、2	-11501
。2	-11502
。3	-11503
》)	-11504
一代	-11505
一到	-11506
一号	-11507
一大	-11508
一套	-11509
一如	-11510
一新	-11511
一时	-11512
一格	-11513
一站	-11514
一组	-11515
一边	-11516
一阵	-11517
七个	-11518
万个	-11519
万众	-11520
万族	-11521
万灵	-11522
万的	-11523
万箱	-11524
万能	-11525
三天	-11526
三家	-11527
三点	-11528
三路	-11529
上午	-11530
上架	-11531
上诉	-11532
上说	-11533
上边	-11534
下单	-11535
下滑	-11536
下雨	-11537
不当	-11538
不怕	-11539
不算	-11540
不衰	-11541
与他	-11542
与你	-11543
与日	-11544
与水	-11545
与海	-11546
专为	-11547
世人	-11548
东湖	-11549
东环	-11550
丝雀	-11551
两国	-11552
两项	-11553
中专	-11554
中也	-11555
中信	-11556
中去	-11557
中标	-11558
中止	-11559
中被	-11560
中铝	-11561
临亨	-11562
为之	-11563
丽影	-11564
义诊	-11565
之力	-11566
之城	-11567
之家	-11568
乐队	-11569
也与	-11570
也想	-11571
了吗	-11572
了新	-11573
二层	-11574
二手	-11575
二级	-11576
二维	-11577
五名	-11578
产值	-11579
京沪	-11580
亮度	-11581
亲属	-11582
亲率	-11583
人情	-11584
人组	-11585
人脸	-11586
人被	-11587
亿份	-11588
仍有	-11589
从未	-11590
他从	-11591
他会	-11592
他对	-11593
他将	-11594
他用	-11595
代替	-11596
以小	-11597
以最	-11598
任总	-11599
仿佛	-11600
休重	-11601
优劣	-11602
伦理	-11603
伯格	-11604
体力	-11605
作曲	-11606
佩服	-11607
侄子	-11608
供水	-11609
供电	-11610
依存	-11611
便会	-11612
促使	-11613
保卫	-11614
信贷	-11615
修正	-11616
修饰	-11617
倍数	-11618
倒数	-11619
借用	-11620
值均	-11621
倾斜	-11622
假如	-11623
偶像	-11624
傍晚	-11625
元的	-11626
充实	-11627
先驱	-11628
光年	-11629
光性	-11630
光绪	-11631
免除	-11632
全区	-11633
全场	-11634
全心	-11635
八强	-11636
公公	-11637
公斤	-11638
共进	-11639
其二	-11640
其后	-11641
养鸭	-11642
兼具	-11643
内向	-11644
内墙	-11645
内存	-11646
内置	-11647
内陆	-11648
写出	-11649
军工	-11650
农牧	-11651
农药	-11652
冠脉	-11653
冥冥	-11654
冬冬	-11655
冬天	-11656
减半	-11657
减震	-11658
几位	-11659
几次	-11660
出事	-11661
出局	-11662
出手	-11663
分会	-11664
分开	-11665
分段	-11666
分的	-11667
分量	-11668
切换	-11669
创伤	-11670
利塔	-11671
制剂	-11672
制订	-11673
刻画	-11674
前任	-11675
前后	-11676
前辈	-11677
力争	-11678
力值	-11679
加以	-11680
加压	-11681
动能	-11682
动脉	-11683
势力	-11684
势在	-11685
勇于	-11686
勇士	-11687
勘察	-11688
勘测	-11689
募资	-11690
化石	-11691
北外	-11692
北部	-11693
匠心	-11694
医科	-11695
千里	-11696
升起	-11697
午餐	-11698
半夜	-11699
华西	-11700
卖点	-11701
占用	-11702
卫队	-11703
却是	-11704
卵石	-11705
压扁	-11706
压机	-11707
原子	-11708
县城	-11709
县委	-11710
参演	-11711
参照	-11712
又名	-11713
又回	-11714
又能	-11715
又被	-11716
友们	-11717
友刚	-11718
发射	-11719
发局	-11720
发泡	-11721
发货	-11722
取出	-11723
取暖	-11724
取款	-11725
受益	-11726
变速	-11727
叠加	-11728
口味	-11729
口秀	-11730
口语	-11731
古墓	-11732
另有	-11733
可将	-11734
可想	-11735
可知	-11736
可视	-11737
台南	-11738
台本	-11739
吃饭	-11740
各县	-11741
各市	-11742
合计	-11743
同等	-11744
同类	-11745
名列	-11746
名思	-11747
名词	-11748
后面	-11749
后顾	-11750
向来	-11751
听力	-11752
吵架	-11753
吸声	-11754
周四	-11755
和亲	-11756
和天	-11757
和对	-11758
咳嗽	-11759
品德	-11760
哈夫	-11761
唐朝	-11762
唱歌	-11763
商圈	-11764
商城	-11765
喜好	-11766
喝酒	-11767
噩梦	-11768
四十	-11769
回路	-11770
国六	-11771
土特	-11772
圣日	-11773
在售	-11774
在国	-11775
在最	-11776
在有	-11777
在黑	-11778
基恩	-11779
塑性	-11780
填充	-11781
增稠	-11782
壳体	-11783
备战	-11784
复产	-11785
夏洛	-11786
外伤	-11787
外孙	-11788
外甥	-11789
外贸	-11790
多万	-11791
多为	-11792
多边	-11793
多达	-11794
大事	-11795
大作	-11796
大厅	-11797
大声	-11798
大战	-11799
大梦	-11800
大象	-11801
天才	-11802
天棚	-11803
天猫	-11804
天赋	-11805
太监	-11806
太过	-11807
失眠	-11808
头上	-11809
头条	-11810
头球	-11811
头翁	-11812
奉天	-11813
奋进	-11814
奖的	-11815
奠基	-11816
奥兰	-11817
奥迪	-11818
女主	-11819
女子	-11820
奶酪	-11821
好像	-11822
妇女	-11823
姿势	-11824
姿态	-11825
媒介	-11826
媳妇	-11827
子和	-11828
学士	-11829
它对	-11830
守珪	-11831
宋代	-11832
完工	-11833
宝塔	-11834
客服	-11835
宣萱	-11836
室温	-11837
室等	-11838
容重	-11839
寓意	-11840
寝室	-11841
对决	-11842
对接	-11843
对阵	-11844
寺塔	-11845
射中	-11846
将与	-11847
将是	-11848
小有	-11849
小松	-11850
小浩	-11851
小花	-11852
少先	-11853
尔等	-11854
尔街	-11855
就连	-11856
局限	-11857
居室	-11858
居家	-11859
屋子	-11860
展馆	-11861
岁时	-11862
岁月	-11863
岩芯	-11864
工序	-11865
巴基	-11866
市区	-11867
市委	-11868
布莱	-11869
师德	-11870
师资	-11871
师风	-11872
希腊	-11873
带给	-11874
常州	-11875
干嘛	-11876
平坦	-11877
平家	-11878
平常	-11879
平滑	-11880
年期	-11881
年终	-11882
年被	-11883
并为	-11884
并以	-11885
并发	-11886
并可	-11887
并向	-11888
并用	-11889
幻想	-11890
广元	-11891
床上	-11892
应税	-11893
底蕴	-11894
庞大	-11895
康熙	-11896
廉洁	-11897
开后	-11898
开售	-11899
开学	-11900
开裂	-11901
开门	-11902
强势	-11903
强者	-11904
归于	-11905
当他	-11906
当初	-11907
当我	-11908
当期	-11909
影迷	-11910
征税	-11911
得出	-11912
得道	-11913
德华	-11914
德尔	-11915
德树	-11916
心动	-11917
必修	-11918
必定	-11919
志刚	-11920
志向	-11921
念头	-11922
怀着	-11923
思惟	-11924
急诊	-11925
总值	-11926
总理	-11927
总监	-11928
总股	-11929
总额	-11930
恍惚	-11931
恰当	-11932
恶少	-11933
悉数	-11934
患上	-11935
悬浮	-11936
情人	-11937
意甲	-11938
感与	-11939
感恩	-11940
愤怒	-11941
慈悲	-11942
成因	-11943
我又	-11944
我方	-11945
战的	-11946
所占	-11947
所未	-11948
手拿	-11949
才会	-11950
扎根	-11951
打下	-11952
打了	-11953
打动	-11954
打磨	-11955
打进	-11956
批评	-11957
承汉	-11958
承重	-11959
承销	-11960
抒情	-11961
投产	-11962
投放	-11963
投稿	-11964
折扣	-11965
抛转	-11966
护士	-11967
抱着	-11968
抽奖	-11969
抽检	-11970
拉娜	-11971
拉特	-11972
拖延	-11973
招弟	-11974
招考	-11975
拿起	-11976
持平	-11977
挪威	-11978
振亚	-11979
据悉	-11980
排气	-11981
接访	-11982
提问	-11983
揭晓	-11984
援助	-11985
搬运	-11986
摸索	-11987
攀升	-11988
改为	-11989
改版	-11990
改装	-11991
攻势	-11992
攻读	-11993
放松	-11994
效能	-11995
文中	-11996
文广	-11997
文秘	-11998
斑点	-11999
斗志	-12000
新人	-12001
新品	-12002
无一	-12003
无处	-12004
无忧	-12005
无所	-12006
无聊	-12007
日讯	-12008
早前	-12009
时就	-12010
时报	-12011
时空	-12012
时隔	-12013
明珠	-12014
易受	-12015
星状	-12016
是新	-12017
是自	-12018
晚晴	-12019
晚间	-12020
普罗	-12021
智联	-12022
暴雨	-12023
曲面	-12024
更深	-12025
最先	-12026
月饼	-12027
有两	-12028
有余	-12029
有史	-12030
有权	-12031
朝气	-12032
期刊	-12033
期盼	-12034
期限	-12035
木板	-12036
本着	-12037
机型	-12038
机票	-12039
杀害	-12040
权力	-12041
权限	-12042
条线	-12043
来电	-12044
杨莉	-12045
杰出	-12046
构图	-12047
果淳	-12048
枸杞	-12049
查找	-12050
柴沟	-12051
柴油	-12052
栏目	-12053
核酸	-12054
格外	-12055
桂园	-12056
楼板	-12057
榆县	-12058
榜样	-12059
模特	-12060
横幅	-12061
欧式	-12062
欧盟	-12063
歌唱	-12064
正当	-12065
此举	-12066
此类	-12067
步道	-12068
死者	-12069
残酷	-12070
每股	-12071
比方	-12072
毕赣	-12073
民国	-12074
氧气	-12075
水冷	-12076
水发	-12077
水底	-12078
水载	-12079
永不	-12080
求职	-12081
没法	-12082
沦落	-12083
油锅	-12084
治好	-12085
沿着	-12086
泄漏	-12087
法制	-12088
注明	-12089
泰山	-12090
洗涤	-12091
洗钱	-12092
流传	-12093
流入	-12094
流派	-12095
浇筑	-12096
浪漫	-12097
浮现	-12098
海湾	-12099
海牙	-12100
涌现	-12101
深切	-12102
深远	-12103
深造	-12104
混淆	-12105
清平	-12106
清除	-12107
港区	-12108
游离	-12109
游艇	-12110
湾区	-12111
源于	-12112
源自	-12113
溶气	-12114
滑稽	-12115
滞留	-12116
满满	-12117
漏洞	-12118
演唱	-12119
演练	-12120
漫长	-12121
澄清	-12122
火焰	-12123
炮制	-12124
点了	-12125
点滴	-12126
烦恼	-12127
热度	-12128
热点	-12129
热线	-12130
热衷	-12131
烹饪	-12132
熟虑	-12133
爱护	-12134
牌照	-12135
牢牢	-12136
牢记	-12137
物资	-12138
特根	-12139
特级	-12140
特邀	-12141
特长	-12142
牺牲	-12143
狭窄	-12144
率的	-12145
率高	-12146
王头	-12147
王菲	-12148
现存	-12149
现身	-12150
珍珠	-12151
珍贵	-12152
班级	-12153
理性	-12154
理科	-12155
理财	-12156
瑞士	-12157
璀璨	-12158
瓶颈	-12159
瓷层	-12160
生了	-12161
生效	-12162
生根	-12163
生理	-12164
用地	-12165
电压	-12166
电台	-12167
电解	-12168
畅销	-12169
疯狂	-12170
痛苦	-12171
癌症	-12172
癫痫	-12173
登岸	-12174
登陆	-12175
白人	-12176
白塔	-12177
的家	-12178
的感	-12179
的我	-12180
的手	-12181
的校	-12182
的确	-12183
的评	-12184
的起	-12185
的饭	-12186
的鱼	-12187
皮革	-12188
盐城	-12189
盒子	-12190
盛典	-12191
直流	-12192
相助	-12193
相干	-12194
相连	-12195
看完	-12196
真相	-12197
着在	-12198
督导	-12199
睫毛	-12200
石化	-12201
砍掉	-12202
砧板	-12203
破了	-12204
硬质	-12205
磁盘	-12206
礼服	-12207
社保	-12208
祝福	-12209
神奇	-12210
离合	-12211
种种	-12212
科尔	-12213
科目	-12214
称是	-12215
称赞	-12216
立式	-12217
立柱	-12218
站在	-12219
竹篾	-12220
笑话	-12221
等风	-12222
筹划	-12223
筹资	-12224
签定	-12225
简易	-12226
简述	-12227
管控	-12228
米修	-12229
米兰	-12230
米的	-12231
精益	-12232
精简	-12233
索尼	-12234
紧固	-12235
絮凝	-12236
纠正	-12237
纤板	-12238
线下	-12239
细微	-12240
经费	-12241
绕行	-12242
统御	-12243
维哥	-12244
维拉	-12245
绽放	-12246
编制	-12247
缺点	-12248
网孔	-12249
罢了	-12250
置身	-12251
美德	-12252
翻了	-12253
考量	-12254
而为	-12255
而战	-12256
而死	-12257
而非	-12258
耐久	-12259
耐心	-12260
耐酸	-12261
耳曼	-12262
职位	-12263
联会	-12264
联络	-12265
联邦	-12266
肉眼	-12267
肢体	-12268
肥料	-12269
肩负	-12270
能为	-12271
脉冲	-12272
脑洞	-12273
脱水	-12274
自古	-12275
自带	-12276
自律	-12277
自费	-12278
船舶	-12279
色素	-12280
芥菜	-12281
芦苇	-12282
花开	-12283
花草	-12284
花钱	-12285
苏佛	-12286
苗族	-12287
英尺	-12288
茫茫	-12289
荣耀	-12290
薄薄	-12291
虔诚	-12292
虚弱	-12293
行星	-12294
行程	-12295
行长	-12296
衍生	-12297
衡量	-12298
补助	-12299
表情	-12300
被困	-12301
被迫	-12302
要以	-12303
要把	-12304
覆钵	-12305
见解	-12306
观影	-12307
规矩	-12308
视的	-12309
解放	-12310
解毒	-12311
解除	-12312
订购	-12313
讯息	-12314
讲与	-12315
讽刺	-12316
设想	-12317
证件	-12318
评审	-12319
诉求	-12320
词典	-12321
试卷	-12322
试鸣	-12323
该批	-12324
该机	-12325
该院	-12326
详见	-12327
说话	-12328
说起	-12329
诸如	-12330
读物	-12331
读诵	-12332
谦虚	-12333
谷物	-12334
财长	-12335
货物	-12336
质地	-12337
质检	-12338
购车	-12339
贵阳	-12340
赏赐	-12341
赞誉	-12342
走了	-12343
走出	-12344
走到	-12345
起着	-12346
起草	-12347
趣味	-12348
跟踪	-12349
跟风	-12350
路灯	-12351
车上	-12352
转入	-12353
转账	-12354
软文	-12355
轻软	-12356
轻钙	-12357
较小	-12358
较少	-12359
较快	-12360
辛苦	-12361
辞职	-12362
边疆	-12363
运维	-12364
运转	-12365
近视	-12366
还需	-12367
这不	-12368
这座	-12369
进修	-12370
进场	-12371
远离	-12372
连音	-12373
迪丽	-12374
退魔	-12375
送到	-12376
送给	-12377
适宜	-12378
逐层	-12379
通俗	-12380
通告	-12381
通报	-12382
造船	-12383
遇上	-12384
部有	-12385
都将	-12386
配送	-12387
酸奶	-12388
醒来	-12389
里程	-12390
重和	-12391
重现	-12392
重返	-12393
野心	-12394
量身	-12395
金钱	-12396
错过	-12397
锦美	-12398
长春	-12399
长足	-12400
间距	-12401
防守	-12402
防御	-12403
阴市	-12404
阴影	-12405
阵列	-12406
附加	-12407
降至	-12408
陕西	-12409
除外	-12410
隆重	-12411
随便	-12412
隔声	-12413
障碍	-12414
集训	-12415
雷特	-12416
青海	-12417
青赛	-12418
靠谱	-12419
面试	-12420
音步	-12421
预判	-12422
预制	-12423
预告	-12424
预见	-12425
预购	-12426
领衔	-12427
频频	-12428
题目	-12429
风电	-12430
飞虎	-12431
食疗	-12432
首歌	-12433
首要	-12434
马克	-12435
高分	-12436
高潮	-12437
黄兴	-12438
黄哥	-12439
黄河	-12440
黑海	-12441
齿轮	-12442
(10	-12443
(16	-12444
,**	-12445
,20	-12446
-14	-12447
-16	-12448
1%。	-12449
1-3	-12450
1.1	-12451
112	-12452
13.	-12453
140	-12454
161	-12455
17.	-12456
180	-12457
220	-12458
350	-12459
540	-12460
70%	-12461
8.7	-12462
889	-12463
90%	-12464
Box	-12465
CEO	-12466
EAN	-12467
Jam	-12468
Jan	-12469
LNG	-12470
NEO	-12471
VOC	-12472
air	-12473
art	-12474
bps	-12475
ead	-12476
end	-12477
ess	-12478
iii	-12479
ile	-12480
ina	-12481
ips	-12482
ipt	-12483
ist	-12484
jee	-12485
net	-12486
olf	-12487
our	-12488
pet	-12489
und	-12490
▁13	-12491
▁24	-12492
▁40	-12493
▁7.	-12494
▁8.	-12495
▁8、	-12496
▁9、	-12497
▁EE	-12498
▁WB	-12499
▁ur	-12500
▁一人	-12501
▁一份	-12502
▁一会	-12503
▁一台	-12504
▁一周	-12505
▁一斤	-12506
▁一本	-12507
▁一波	-12508
▁一生	-12509
▁一看	-12510
▁一秒	-12511
▁上午	-12512
▁上学	-12513
▁上述	-12514
▁下班	-12515
▁不信	-12516
▁不去	-12517
▁不回	-12518
▁不让	-12519
▁东莞	-12520
▁东部	-12521
▁两人	-12522
▁为何	-12523
▁乒乓	-12524
▁事实	-12525
▁交流	-12526
▁亲戚	-12527
▁人多	-12528
▁他家	-12529
▁企鹅	-12530
▁优点	-12531
▁传说	-12532
▁似的	-12533
▁依然	-12534
▁信息	-12535
▁假期	-12536
▁假装	-12537
▁免得	-12538
▁免费	-12539
▁全是	-12540
▁公开	-12541
▁关机	-12542
▁农村	-12543
▁决定	-12544
▁几点	-12545
▁出国	-12546
▁分开	-12547
▁创新	-12548
▁别说	-12549
▁到位	-12550
▁制造	-12551
▁刺客	-12552
▁加华	-12553
▁十九	-12554
▁单纯	-12555
▁南京	-12556
▁印度	-12557
▁原谅	-12558
▁参加	-12559
▁发型	-12560
▁口味	-12561
▁口气	-12562
▁口罩	-12563
▁可好	-12564
▁叶子	-12565
▁合肥	-12566
▁同乐	-12567
▁同志	-12568
▁周一	-12569
▁咱俩	-12570
▁啧啧	-12571
▁善良	-12572
▁喝点	-12573
▁嗓子	-12574
▁回答	-12575
▁围观	-12576
▁国内	-12577
▁国庆	-12578
▁在这	-12579
▁地球	-12580
▁地震	-12581
▁坐等	-12582
▁培训	-12583
▁处理	-12584
▁多年	-12585
▁多谢	-12586
▁夜店	-12587
▁大大	-12588
▁大姐	-12589
▁大姨	-12590
▁天津	-12591
▁太棒	-12592
▁奶茶	-12593
▁好想	-12594
▁好用	-12595
▁好美	-12596
▁好远	-12597
▁存在	-12598
▁学习	-12599
▁学院	-12600
▁安安	-12601
▁实力	-12602
▁对此	-12603
▁尤其	-12604
▁尽情	-12605
▁尽管	-12606
▁左右	-12607
▁帅哥	-12608
▁帅气	-12609
▁师傅	-12610
▁幸运	-12611
▁幽默	-12612
▁广场	-12613
▁开学	-12614
▁当年	-12615
▁很久	-12616
▁很想	-12617
▁很长	-12618
▁心理	-12619
▁必要	-12620
▁怀念	-12621
▁总要	-12622
▁恩爱	-12623
▁想想	-12624
▁想法	-12625
▁意见	-12626
▁感动	-12627
▁懒得	-12628
▁成功	-12629
▁戒指	-12630
▁截至	-12631
▁房间	-12632
▁打折	-12633
▁拖鞋	-12634
▁拥抱	-12635
▁控制	-12636
▁提醒	-12637
▁摄影	-12638
▁收费	-12639
▁放下	-12640
▁放在	-12641
▁数学	-12642
▁新华	-12643
▁施工	-12644
▁旁边	-12645
▁无法	-12646
▁日本	-12647
▁早日	-12648
▁早睡	-12649
▁明儿	-12650
▁明年	-12651
▁明显	-12652
▁明白	-12653
▁星星	-12654
▁春天	-12655
▁显得	-12656
▁晚饭	-12657
▁普通	-12658
▁暂时	-12659
▁暖气	-12660
▁本人	-12661
▁来看	-12662
▁来说	-12663
▁果断	-12664
▁棒棒	-12665
▁榴莲	-12666
▁毛衣	-12667
▁水印	-12668
▁河南	-12669
▁洗完	-12670
▁洗澡	-12671
▁消失	-12672
▁深深	-12673
▁温馨	-12674
▁点评	-12675
▁热水	-12676
▁爱心	-12677
▁玩儿	-12678
▁珍惜	-12679
▁生命	-12680
▁百度	-12681
▁相亲	-12682
▁相反	-12683
▁相比	-12684
▁看好	-12685
▁真棒	-12686
▁知识	-12687
▁笑话	-12688
▁等到	-12689
▁网上	-12690
▁翻来	-12691
▁耳朵	-12692
▁能力	-12693
▁脸上	-12694
▁自信	-12695
▁节日	-12696
▁花钱	-12697
▁英语	-12698
▁被告	-12699
▁西瓜	-12700
▁见识	-12701
▁计划	-12702
▁训练	-12703
▁记忆	-12704
▁读书	-12705
▁调皮	-12706
▁负责	-12707
▁赶快	-12708
▁车上	-12709
▁转发	-12710
▁近期	-12711
▁这位	-12712
▁这才	-12713
▁送给	-12714
▁速度	-12715
▁邮编	-12716
▁长发	-12717
▁长沙	-12718
▁门口	-12719
▁门票	-12720
▁问下	-12721
▁防空	-12722
▁附近	-12723
▁雪人	-12724
▁非要	-12725
▁顶尖	-12726
▁风格	-12727
▁食堂	-12728
▁饺子	-12729
▁首歌	-12730
▁香港	-12731
▁骄傲	-12732
▁骗人	-12733
▁麻辣	-12734
一个是	-12735
一会儿	-12736
一体化	-12737
一次次	-12738
一直是	-12739
一站式	-12740
万家和	-12741
上升了	-12742
上赛季	-12743
不公平	-12744
不出来	-12745
不应该	-12746
不断地	-12747
不稳定	-12748
不符合	-12749
与国际	-12750
与销售	-12751
专业性	-12752
世纪初	-12753
东鹏人	-12754
两部分	-12755
个城市	-12756
中医药	-12757
中联办	-12758
中表示	-12759
为宗旨	-12760
主人公	-12761
主要的	-12762
举办了	-12763
也不会	-12764
了一场	-12765
了下来	-12766
二七区	-12767
二类烟	-12768
二维码	-12769
云南省	-12770
五星级	-12771
产生了	-12772
享受到	-12773
亮丽的	-12774
人们对	-12775
人员对	-12776
人心的	-12777
人群的	-12778
亿英镑	-12779
从实际	-12780
他们会	-12781
以往的	-12782
以来最	-12783
会引起	-12784
会影响	-12785
会自动	-12786
会议室	-12787
伸长率	-12788
但如果	-12789
但是一	-12790
但没有	-12791
佛山市	-12792
使用时	-12793
供应链	-12794
依存度	-12795
依然是	-12796
依赖于	-12797
保时捷	-12798
信赖的	-12799
候选人	-12800
借助于	-12801
做出的	-12802
做到的	-12803
充满著	-12804
全覆盖	-12805
全面二	-12806
八音盒	-12807
公共性	-12808
公务员	-12809
公布了	-12810
六安市	-12811
兰大学	-12812
其中的	-12813
具有很	-12814
养鸭户	-12815
内分泌	-12816
再担保	-12817
再进行	-12818
几个月	-12819
凭证式	-12820
出一种	-12821
出具有	-12822
分之一	-12823
则可以	-12824
创业板	-12825
创造力	-12826
制品的	-12827
制定的	-12828
前提是	-12829
加入少	-12830
势在必	-12831
包括了	-12832
化发展	-12833
化生产	-12834
医院的	-12835
十一月	-12836
十分有	-12837
卡洛斯	-12838
即将于	-12839
压力的	-12840
原有的	-12841
原来的	-12842
去库存	-12843
参观者	-12844
反映了	-12845
发挥着	-12846
发生后	-12847
发病率	-12848
发言人	-12849
取决于	-12850
取得的	-12851
只不过	-12852
可以是	-12853
可替代	-12854
可达到	-12855
可靠的	-12856
各单位	-12857
各方面	-12858
合伙人	-12859
同时有	-12860
名思义	-12861
君教授	-12862
吹填造	-12863
呈上升	-12864
呈示部	-12865
味无穷	-12866
和中国	-12867
和企业	-12868
和其它	-12869
和利益	-12870
和力量	-12871
和参与	-12872
和各种	-12873
和学生	-12874
和未来	-12875
和活动	-12876
和生产	-12877
和相互	-12878
和经济	-12879
和美国	-12880
咨询师	-12881
喜剧脱	-12882
喜爱的	-12883
国情怀	-12884
国防部	-12885
土力学	-12886
土特产	-12887
在上海	-12888
在国外	-12889
在国家	-12890
在技术	-12891
在接受	-12892
在教学	-12893
在看到	-12894
在能源	-12895
在进行	-12896
地体会	-12897
型人才	-12898
基金中	-12899
基金的	-12900
复印件	-12901
外甥女	-12902
多媒体	-12903
大家在	-12904
大尺寸	-12905
大屯路	-12906
大环境	-12907
好教练	-12908
好消息	-12909
如何在	-12910
学生将	-12911
实力的	-12912
实际了	-12913
审美观	-12914
客户的	-12915
客户端	-12916
家券商	-12917
家协会	-12918
对整个	-12919
对皮肤	-12920
对这个	-12921
导致的	-12922
将全面	-12923
将来的	-12924
尤其在	-12925
局领导	-12926
层含义	-12927
展览厅	-12928
工作室	-12929
工具箱	-12930
差异化	-12931
已超过	-12932
市场中	-12933
市政府	-12934
布置图	-12935
布莱克	-12936
年普通	-12937
并进行	-12938
庆元县	-12939
应有的	-12940
应用到	-12941
庾黔娄	-12942
建设类	-12943
开公司	-12944
开放式	-12945
引人注	-12946
张守珪	-12947
强度的	-12948
当代最	-12949
影视剧	-12950
待提升	-12951
很快就	-12952
徐友刚	-12953
得益于	-12954
性价比	-12955
性技术	-12956
性能强	-12957
总票房	-12958
总股本	-12959
患者的	-12960
想知道	-12961
意识和	-12962
感觉到	-12963
成功地	-12964
成都新	-12965
我也是	-12966
我们想	-12967
我知道	-12968
执行官	-12969
技术性	-12970
把握好	-12971
抑扬格	-12972
投资人	-12973
抗氧化	-12974
抗风险	-12975
抛光机	-12976
拍摄的	-12977
持有的	-12978
持续的	-12979
据报道	-12980
排污费	-12981
控制和	-12982
提供给	-12983
操作者	-12984
政府和	-12985
政府的	-12986
效果好	-12987
敏捷性	-12988
数量和	-12989
文化的	-12990
文章中	-12991
新征程	-12992
方向盘	-12993
无与伦	-12994
日元通	-12995
日报道	-12996
日晚上	-12997
是一名	-12998
是为了	-12999
是怎么	-13000
是无法	-13001
是根据	-13002
是美国	-13003
智能体	-13004
暑期档	-13005
最初的	-13006
有一种	-13007
有不少	-13008
有关的	-13009
有多种	-13010
有机物	-13011
有针对	-13012
有问题	-13013
服务器	-13014
朝时期	-13015
朝阳区	-13016
木结构	-13017
本地区	-13018
本科生	-13019
构建了	-13020
构成了	-13021
标准为	-13022
标准的	-13023
格里福	-13024
桂林市	-13025
模式的	-13026
欧洲杯	-13027
欧洲的	-13028
每半年	-13029
比较多	-13030
比较大	-13031
氨基酸	-13032
汉考克	-13033
江西省	-13034
泉州市	-13035
注入了	-13036
注册的	-13037
注意到	-13038
注意力	-13039
洗衣房	-13040
济南大	-13041
济州总	-13042
消化道	-13043
涉及到	-13044
深厚的	-13045
清明节	-13046
满意度	-13047
潜力的	-13048
热环境	-13049
熟悉的	-13050
物流港	-13051
物质的	-13052
特别的	-13053
特斯拉	-13054
特洛特	-13055
独立的	-13056
王临亨	-13057
理想的	-13058
田径场	-13059
由中国	-13060
电影中	-13061
电采暖	-13062
男演员	-13063
画面上	-13064
病情的	-13065
白城市	-13066
白色的	-13067
白金版	-13068
的一大	-13069
的一定	-13070
的两个	-13071
的事实	-13072
的人们	-13073
的人群	-13074
的任务	-13075
的体验	-13076
的保障	-13077
的具体	-13078
的动态	-13079
的压力	-13080
的另一	-13081
的命运	-13082
的垃圾	-13083
的塑料	-13084
的定义	-13085
的客户	-13086
的平台	-13087
的开发	-13088
的形成	-13089
的很多	-13090
的心情	-13091
的新闻	-13092
的日子	-13093
的时代	-13094
的暴力	-13095
的最大	-13096
的最新	-13097
的来源	-13098
的消息	-13099
的清洁	-13100
的渐变	-13101
的热点	-13102
的特性	-13103
的状态	-13104
的环保	-13105
的生命	-13106
的疾病	-13107
的组织	-13108
的经济	-13109
的职责	-13110
的自然	-13111
的苹果	-13112
的行业	-13113
的表演	-13114
的角度	-13115
的角色	-13116
的诗句	-13117
的课程	-13118
的质量	-13119
的资产	-13120
的资金	-13121
的转变	-13122
的重点	-13123
的饰品	-13124
监护人	-13125
监测站	-13126
目前的	-13127
相应于	-13128
相较于	-13129
看一下	-13130
看看吧	-13131
着人们	-13132
研究了	-13133
研究等	-13134
种说法	-13135
科技与	-13136
程度上	-13137
第一期	-13138
第一款	-13139
第二天	-13140
第二期	-13141
第二次	-13142
等产品	-13143
等优点	-13144
等内容	-13145
等国家	-13146
等法规	-13147
管理者	-13148
精彩纷	-13149
精美的	-13150
系统和	-13151
经典的	-13152
经历过	-13153
经常会	-13154
给人类	-13155
给未来	-13156
维持在	-13157
维特根	-13158
老龄化	-13159
而成的	-13160
联松子	-13161
胡院长	-13162
艺术展	-13163
芥末粉	-13164
苏耀国	-13165
范围广	-13166
荞麦面	-13167
获得的	-13168
营业额	-13169
落后于	-13170
表达了	-13171
被打破	-13172
装饰板	-13173
要根据	-13174
规划和	-13175
规定和	-13176
规模和	-13177
认定为	-13178
让他们	-13179
让用户	-13180
许又声	-13181
设备和	-13182
设计和	-13183
试验力	-13184
该怎么	-13185
该项目	-13186
详细的	-13187
调味料	-13188
调查中	-13189
负责院	-13190
责任书	-13191
责任人	-13192
贸发局	-13193
超人的	-13194
超级杯	-13195
足球迷	-13196
身体的	-13197
轧卷板	-13198
输给了	-13199
迎春花	-13200
这只是	-13201
这是一	-13202
这本书	-13203
这样做	-13204
进行中	-13205
连接件	-13206
连接器	-13207
连续的	-13208
退魔录	-13209
适用的	-13210
道路上	-13211
避难所	-13212
邱承汉	-13213
部分的	-13214
都会有	-13215
都是以	-13216
里面的	-13217
重工业	-13218
重金属	-13219
金丝雀	-13220
铁矿石	-13221
错误的	-13222
问题与	-13223
问题是	-13224
防冻剂	-13225
阿尔法	-13226
降低了	-13227
限量版	-13228
除持有	-13229
隶属于	-13230
集中于	-13231
需要花	-13232
非凡的	-13233
项目中	-13234
马戏团	-13235
高水平	-13236
高精度	-13237
黄金周	-13238
1978	-13239
1993	-13240
1996	-13241
20%,	-13242
2002	-13243
34.9	-13244
4000	-13245
6000	-13246
9001	-13247
:105	-13248
AMCA	-13249
BEIJ	-13250
Elon	-13251
FLAM	-13252
Mary	-13253
ange	-13254
nter	-13255
oral	-13256
▁3.1	-13257
▁Mob	-13258
▁Res	-13259
▁USB	-13260
▁and	-13261
▁are	-13262
▁一辈子	-13263
▁下个月	-13264
▁华富中	-13265
▁同一个	-13266
▁如果你	-13267
▁实际上	-13268
▁小可爱	-13269
▁小时候	-13270
▁小朋友	-13271
▁我爱你	-13272
▁电视剧	-13273
▁白羊男	-13274
▁舍不得	-13275
》(18	-13276
一期工程	-13277
一直处于	-13278
一级注册	-13279
一般都是	-13280
万族万灵	-13281
三个方面	-13282
下游需求	-13283
不得超过	-13284
不断学习	-13285
不锈钢管	-13286
专业人士	-13287
专业人才	-13288
专业建设	-13289
世界上最	-13290
严格落实	-13291
严格遵守	-13292
中国大陆	-13293
中国文化	-13294
中国游戏	-13295
中小学校	-13296
中心化的	-13297
中日关系	-13298
中药原料	-13299
临时禁令	-13300
为基础的	-13301
主创人员	-13302
主要生产	-13303
主题公园	-13304
也有很多	-13305
也能好好	-13306
也越来越	-13307
乡村振兴	-13308
了学生的	-13309
二次污染	-13310
五保老人	-13311
产业集群	-13312
人才培育	-13313
人物角色	-13314
亿平方米	-13315
什么时候	-13316
从而形成	-13317
从而提高	-13318
从而达到	-13319
以下几个	-13320
休闲娱乐	-13321
众所周知	-13322
优秀人才	-13323
优联互通	-13324
体型近似	-13325
体育运动	-13326
作为一个	-13327
你为什么	-13328
使用这些	-13329
保护措施	-13330
信访举报	-13331
值得关注	-13332
先进单位	-13333
党组成员	-13334
全体教师	-13335
全球仅次	-13336
公共卫生	-13337
公关公司	-13338
兴业银行	-13339
农业生产	-13340
农牧产品	-13341
分之一的	-13342
副理事长	-13343
力学性能	-13344
力量雄厚	-13345
办学理念	-13346
募集金额	-13347
化石能源	-13348
北京大学	-13349
北四环路	-13350
北方地区	-13351
医科大学	-13352
千万不要	-13353
华山论剑	-13354
卫星电视	-13355
厕所革命	-13356
原煤产量	-13357
参会单位	-13358
双方同学	-13359
发达国家	-13360
受到影响	-13361
变得更加	-13362
古墓丽影	-13363
可以得到	-13364
可以找到	-13365
可以看出	-13366
可想而知	-13367
各有不同	-13368
员工队伍	-13369
周围环境	-13370
团膳企业	-13371
团队合作	-13372
园林景观	-13373
国安战士	-13374
国家标准	-13375
国家重点	-13376
国际市场	-13377
土工材料	-13378
圣日耳曼	-13379
在办公室	-13380
在我们的	-13381
在自己的	-13382
城市规划	-13383
基因检测	-13384
基本理论	-13385
基础研究	-13386
塑料薄膜	-13387
增长贡献	-13388
大屯北路	-13389
大幅提升	-13390
大晚上的	-13391
大部分的	-13392
天窗导轨	-13393
女性读研	-13394
媒体广告	-13395
子女政策	-13396
孩子一起	-13397
完全没有	-13398
完全相同	-13399
实训基地	-13400
实验中心	-13401
宣布创立	-13402
室内空间	-13403
密檐式塔	-13404
小康社会	-13405
少先队员	-13406
就是一个	-13407
尽量避免	-13408
山东省胸	-13409
岁以上的	-13410
工作岗位	-13411
工地围栏	-13412
已经完成	-13413
巴基斯坦	-13414
市义工联	-13415
市场份额	-13416
市场发展	-13417
师德师风	-13418
带来新的	-13419
年三季度	-13420
年增长率	-13421
年第一次	-13422
度和编排	-13423
建筑结构	-13424
想像力的	-13425
慈善事业	-13426
我不知道	-13427
我国目前	-13428
我国经济	-13429
或者其他	-13430
找到一个	-13431
技术创新	-13432
拒绝入境	-13433
接受中国	-13434
政府部门	-13435
教育中心	-13436
数字内容	-13437
数据隐私	-13438
文化遗产	-13439
文艺电影	-13440
新兴产业	-13441
新晋小花	-13442
新设立的	-13443
旅游产品	-13444
日出生于	-13445
日起施行	-13446
明日之星	-13447
星状细胞	-13448
是一个人	-13449
普罗米修	-13450
智联普陀	-13451
更加稳定	-13452
更多的是	-13453
有缘猎人	-13454
有良好的	-13455
服务体系	-13456
服务质量	-13457
杀出重围	-13458
核酸检测	-13459
格莱美奖	-13460
桂园街道	-13461
档案信息	-13462
检查一次	-13463
检验结果	-13464
欢迎大家	-13465
此次展出	-13466
此次活动	-13467
比较好吃	-13468
毕业人数	-13469
民营企业	-13470
水果出口	-13471
沟通能力	-13472
沿海地区	-13473
活跃用户	-13474
海洋文本	-13475
深思熟虑	-13476
清水模板	-13477
游乐设施	-13478
游戏手柄	-13479
游戏玩家	-13480
演出专用	-13481
潜在客户	-13482
煤炭企业	-13483
环境优美	-13484
环境影响	-13485
生产原煤	-13486
生产设备	-13487
生产车间	-13488
生产过程	-13489
生活中的	-13490
用户体验	-13491
用自己的	-13492
申请报告	-13493
电动机的	-13494
电子游戏	-13495
留学生们	-13496
疫情对策	-13497
白癜风病	-13498
的新能源	-13499
的环境中	-13500
目前已经	-13501
直接影响	-13502
相关人士	-13503
相当大的	-13504
知名品牌	-13505
石油化工	-13506
研究业务	-13507
研究表明	-13508
硕士学位	-13509
社会保障	-13510
社区治理	-13511
禁止其他	-13512
科学知识	-13513
科研单位	-13514
积极响应	-13515
立法计划	-13516
管理公司	-13517
管理服务	-13518
管理模式	-13519
系统中的	-13520
纪检监察	-13521
纷纷表示	-13522
经营业绩	-13523
经营活动	-13524
给人一种	-13525
网站排名	-13526
网络投票	-13527
网络教育	-13528
考核办法	-13529
肢体语言	-13530
能源发展	-13531
能源革命	-13532
自动控制	-13533
自然保护	-13534
自然科学	-13535
自由贸易	-13536
艺术家的	-13537
艺术节上	-13538
节能玻璃	-13539
范围内的	-13540
荣誉项目	-13541
营销方式	-13542
蓬勃发展	-13543
行人通行	-13544
褪黑激素	-13545
西北地区	-13546
视光中心	-13547
解决问题	-13548
语音搜索	-13549
调度编排	-13550
财务管理	-13551
财政税务	-13552
资金投入	-13553
起重机械	-13554
软件开发	-13555
运营管理	-13556
这一现象	-13557
这些省份	-13558
这些都是	-13559
这意味着	-13560
这种疾病	-13561
进入中国	-13562
逐渐成为	-13563
道路工程	-13564
部分组成	-13565
都不知道	-13566
配套设施	-13567
重点研究	-13568
鉴定机构	-13569
销售收入	-13570
锦美环保	-13571
队伍建设	-13572
集中充电	-13573
雪花白砂	-13574
需要注意	-13575
韩国饰品	-13576
项目实施	-13577
顾名思义	-13578
预定展位	-13579
预科学院	-13580
领衔主演	-13581
香港回归	-13582
龙头企业	-13583
,2008	-13584
,2010	-13585
-1000	-13586
1.4%,	-13587
50000	-13588
James	-13589
Jason	-13590
Shopp	-13591
Tower	-13592
aster	-13593
cript	-13594
earch	-13595
house	-13596
nolog	-13597
▁2008	-13598
▁2015	-13599
▁Type	-13600
▁东部新城	-13601
▁商务英语	-13602
▁平安租赁	-13603
▁智能家居	-13604
▁注意安全	-13605
。2016	-13606
一定规模和	-13607
万家和小区	-13608
上市公司的	-13609
下跌幅度为	-13610
不得不面对	-13611
与众不同的	-13612
东湖高新区	-13613
中华民族的	-13614
二零一五年	-13615
产业的比重	-13616
儿童游乐园	-13617
充分体现了	-13618
共同努力下	-13619
创业投资暨	-13620
创新素养的	-13621
发展的趋势	-13622
受版权保护	-13623
各种各样的	-13624
同时也可以	-13625
含有大量的	-13626
喜剧脱口秀	-13627
在校研究生	-13628
地区邮政业	-13629
城市化进程	-13630
基金数共计	-13631
处理的木材	-13632
多种多样的	-13633
对外依存度	-13634
导致白癜风	-13635
平面布置图	-13636
广州分公司	-13637
成都新机场	-13638
我希望各位	-13639
房地产开发	-13640
教学成果奖	-13641
数字化转型	-13642
有针对性地	-13643
本次交易的	-13644
李群自动化	-13645
杨莉君教授	-13646
桑德兰大学	-13647
欧洲超级杯	-13648
气体传感器	-13649
沙特阿拉伯	-13650
版权所有者	-13651
牛奶替代品	-13652
现代服务业	-13653
的主要因素	-13654
的基本能力	-13655
的基础设施	-13656
的工作人员	-13657
的经营理念	-13658
的被调查者	-13659
的饮食老板	-13660
相关负责人	-13661
省担保平台	-13662
等法规规章	-13663
维特根斯坦	-13664
自然流产后	-13665
这个品牌的	-13666
进一步完善	-13667
钢琴奏鸣曲	-13668
阴市博物馆	-13669
青花瓷建筑	-13670
颁奖典礼上	-13671
首席执行官	-13672
香港中联办	-13673
高校毕业生	-13674
黑格尔研究	-13675
earBox	-13676
▁Boyer	-13677
▁areas	-13678
▁urban	-13679
▁济宁臭氧机	-13680
▁高温试验机	-13681
中哈原油管道	-13682
中药资源调查	-13683
人力资源管理	-13684
亿元同比增长	-13685
健康管理师的	-13686
全能刷票公司	-13687
内蒙古自治区	-13688
判定为不合格	-13689
华国际物流港	-13690
国家公园管理	-13691
在日常生活中	-13692
地体会这句话	-13693
大数据管理局	-13694
少年儿童愿望	-13695
巴黎圣日耳曼	-13696
年第一次临时	-13697
我县蔬菜价格	-13698
技术力量雄厚	-13699
招投标工作的	-13700
招标代理机构	-13701
改革开放以来	-13702
新楼医疗体系	-13703
时至演出活动	-13704
汽车天窗导轨	-13705
独生子女政策	-13706
白癜风是一种	-13707
监测数据显示	-13708
税控设备市场	-13709
管理暂行办法	-13710
职业技术学院	-13711
自主知识产权	-13712
行业管理部门	-13713
计划生育政策	-13714
金刚宝座式塔	-13715
销售地条钢等	-13716
BEIJING	-13717
NEOFLAM	-13718
Windows	-13719
▁Google	-13720
▁Mobile	-13721
▁Spring	-13722
▁值得一提的是	-13723
▁值得注意的是	-13724
中药资源与开发	-13725
以吸引大量观众	-13726
俄罗斯马戏世界	-13727
压电写真机喷头	-13728
大学地址在哪里	-13729
山东省胸科医院	-13730
招投标管理工作	-13731
欧氏运动木地板	-13732
演出专用证件的	-13733
激烈的市场竞争	-13734
现代煤化工产业	-13735
白羊座和处女座	-13736
讲与林志玲相左	-13737
Whatsapp	-13738
oduction	-13739
▁新北市金山区金	-13740
优游体育优游体育	-13741
佣金收入同比增长	-13742
哈塞尔建筑事务所	-13743
国家公园体制建设	-13744
广西毕业生就业网	-13745
时至演出活动结束	-13746
财政税务专科学校	-13747
陕西省西安市雁塔	-13748
PowerShot	-13749
分享以吸引大量观众	-13750
劳动争议仲裁委员会	-13751
大型卧式拉力试验机	-13752
尤伦斯当今艺术中心	-13753
微型摆线针轮减速机	-13754
我希望各位也能好好	-13755
新能源汽车技术专业	-13756
有限公司广州分公司	-13757
▁Technolog	-13758
中药资源的综合开发和	-13759
密封性方面去看的时候	-13760
少年儿童愿望美术作品	-13761
除持有演出专用证件的	-13762
互联网广告管理暂行办法	-13763
创业投资暨私募股权投资	-13764
▁development	-13765
▁厂家专业供应黄粉虫微波熟化机	-13766
我希望各位也能好好地体会这句话	-13767
----------------	-13768
(《	-13769
,”	-13770
05	-13771
0。	-13772
5,	-13773
6-	-13774
7)	-13775
8”	-13776
9%	-13777
94	-13778
:"	-13779
:[	-13780
CM	-13781
DD	-13782
DI	-13783
DV	-13784
Go	-13785
HH	-13786
Hc	-13787
IM	-13788
MS	-13789
Mg	-13790
Or	-13791
Ox	-13792
PD	-13793
RC	-13794
SU	-13795
Sm	-13796
TA	-13797
Un	-13798
We	-13799
XM	-13800
XP	-13801
XY	-13802
ap	-13803
bo	-13804
eg	-13805
ep	-13806
iF	-13807
ks	-13808
lr	-13809
ne	-13810
ng	-13811
oT	-13812
pH	-13813
ra	-13814
te	-13815
uc	-13816
▁Z	-13817
▁f	-13818
▁x	-13819
▁y	-13820
▁¿	-13821
▁串	-13822
▁乘	-13823
▁亏	-13824
▁仔	-13825
▁伙	-13826
▁佳	-13827
▁凑	-13828
▁刻	-13829
▁劝	-13830
▁功	-13831
▁及	-13832
▁呜	-13833
▁味	-13834
▁咪	-13835
▁哄	-13836
▁嘘	-13837
▁坑	-13838
▁奢	-13839
▁妙	-13840
▁嬛	-13841
▁孩	-13842
▁宁	-13843
▁密	-13844
▁寿	-13845
▁尝	-13846
▁尼	-13847
▁展	-13848
▁弹	-13849
▁彭	-13850
▁影	-13851
▁必	-13852
▁悠	-13853
▁悬	-13854
▁或	-13855
▁扑	-13856
▁扶	-13857
▁抄	-13858
▁投	-13859
▁抖	-13860
▁折	-13861
▁挖	-13862
▁捏	-13863
▁搜	-13864
▁摘	-13865
▁摸	-13866
▁撕	-13867
▁撞	-13868
▁映	-13869
▁朱	-13870
▁极	-13871
▁架	-13872
▁查	-13873
▁树	-13874
▁椰	-13875
▁欲	-13876
▁殉	-13877
▁民	-13878
▁汤	-13879
▁沾	-13880
▁法	-13881
▁滑	-13882
▁漂	-13883
▁烟	-13884
▁熊	-13885
▁爹	-13886
▁版	-13887
▁狂	-13888
▁独	-13889
▁环	-13890
▁甄	-13891
▁甚	-13892
▁皇	-13893
▁盆	-13894
▁盛	-13895
▁盯	-13896
▁盼	-13897
▁知	-13898
▁矫	-13899
▁稀	-13900
▁童	-13901
▁粘	-13902
▁粮	-13903
▁纵	-13904
▁羞	-13905
▁翘	-13906
▁者	-13907
▁胃	-13908
▁臭	-13909
▁藏	-13910
▁蠢	-13911
▁补	-13912
▁裤	-13913
▁言	-13914
▁象	-13915
▁赏	-13916
▁透	-13917
▁量	-13918
▁铺	-13919
▁锤	-13920
▁镜	-13921
▁需	-13922
▁静	-13923
▁鲜	-13924
、(	-13925
。7	-13926
》;	-13927
一丝	-13928
一向	-13929
一幅	-13930
一方	-13931
一杯	-13932
一根	-13933
一波	-13934
一百	-13935
一看	-13936
一秒	-13937
一笑	-13938
一觉	-13939
一辆	-13940
一颗	-13941
七位	-13942
七粉	-13943
万余	-13944
万物	-13945
三国	-13946
三日	-13947
三次	-13948
三者	-13949
三部	-13950
上和	-13951
上场	-13952
上百	-13953
上行	-13954
上证	-13955
下月	-13956
不亏	-13957
不动	-13958
不定	-13959
不拘	-13960
不敌	-13961
不整	-13962
不期	-13963
不治	-13964
不粘	-13965
不绝	-13966
不胜	-13967
不行	-13968
不论	-13969
不败	-13970
与上	-13971
与前	-13972
与新	-13973
世代	-13974
世间	-13975
业等	-13976
丢了	-13977
两侧	-13978
两场	-13979
两市	-13980
严厉	-13981
丧失	-13982
个大	-13983
个数	-13984
中一	-13985
中人	-13986
中以	-13987
中做	-13988
中共	-13989
中兴	-13990
中和	-13991
中场	-13992
中天	-13993
中对	-13994
中方	-13995
中研	-13996
临海	-13997
为准	-13998
主业	-13999
主推	-14000
主权	-14001
主流	-14002
之人	-14003
之初	-14004
之名	-14005
之基	-14006
之多	-14007
之心	-14008
之法	-14009
之称	-14010
之道	-14011
乐于	-14012
乙醇	-14013
九九	-14014
九年	-14015
也从	-14016
也向	-14017
也没	-14018
也被	-14019
也都	-14020
习俗	-14021
了么	-14022
了我	-14023
了该	-14024
争夺	-14025
争执	-14026
事后	-14027
互联	-14028
互补	-14029
五十	-14030
五百	-14031
交织	-14032
交道	-14033
亦有	-14034
产地	-14035
京东	-14036
京台	-14037
京报	-14038
亮眼	-14039
亲自	-14040
人中	-14041
人以	-14042
人偶	-14043
人和	-14044
人格	-14045
人次	-14046
仍是	-14047
仍需	-14048
从严	-14049
从这	-14050
他为	-14051
他以	-14052
他就	-14053
他当	-14054
他想	-14055
他被	-14056
代之	-14057
代价	-14058
代言	-14059
令吉	-14060
令我	-14061
令皓	-14062
以北	-14063
以求	-14064
以身	-14065
们也	-14066
件事	-14067
价钱	-14068
任教	-14069
企划	-14070
伊朗	-14071
优视	-14072
伙儿	-14073
传授	-14074
传言	-14075
伦多	-14076
但不	-14077
但要	-14078
位列	-14079
低位	-14080
低的	-14081
住了	-14082
体化	-14083
体态	-14084
何况	-14085
何时	-14086
余个	-14087
余篇	-14088
佛光	-14089
佛经	-14090
作弊	-14091
作证	-14092
你在	-14093
你要	-14094
你说	-14095
使者	-14096
例外	-14097
供图	-14098
依次	-14099
侦查	-14100
侧重	-14101
侨胞	-14102
侵入	-14103
侵权	-14104
便可	-14105
俏皮	-14106
保湿	-14107
信仰	-14108
信的	-14109
修养	-14110
倒入	-14111
倡导	-14112
倾力	-14113
倾销	-14114
假日	-14115
偏向	-14116
偏远	-14117
做得	-14118
做起	-14119
停在	-14120
停留	-14121
催促	-14122
僵局	-14123
元至	-14124
元起	-14125
兄妹	-14126
先试	-14127
先锋	-14128
光洁	-14129
光芒	-14130
光荣	-14131
克兰	-14132
克劳	-14133
免征	-14134
入侵	-14135
入户	-14136
入手	-14137
入睡	-14138
全天	-14139
全套	-14140
全集	-14141
八项	-14142
公元	-14143
公款	-14144
公示	-14145
公道	-14146
共性	-14147
共谋	-14148
共赢	-14149
关漫	-14150
其一	-14151
其为	-14152
兼顾	-14153
内壁	-14154
再说	-14155
写成	-14156
写道	-14157
农庄	-14158
农民	-14159
农田	-14160
农资	-14161
冯华	-14162
决战	-14163
决斗	-14164
冶炼	-14165
冷藏	-14166
冷链	-14167
冷静	-14168
准则	-14169
减肥	-14170
几十	-14171
几大	-14172
凯尔	-14173
凯歌	-14174
出一	-14175
出女	-14176
出战	-14177
出新	-14178
出水	-14179
刀具	-14180
分区	-14181
分担	-14182
分期	-14183
分组	-14184
分贝	-14185
切成	-14186
切断	-14187
刑事	-14188
刑警	-14189
列表	-14190
刘慧	-14191
则仕	-14192
则有	-14193
刚强	-14194
初次	-14195
别于	-14196
到对	-14197
制裁	-14198
刷子	-14199
刻录	-14200
剂量	-14201
前一	-14202
前端	-14203
前者	-14204
前郭	-14205
前锋	-14206
剖析	-14207
剧场	-14208
副厅	-14209
力求	-14210
力能	-14211
功效	-14212
加拉	-14213
加购	-14214
务处	-14215
务必	-14216
动心	-14217
动词	-14218
努奇	-14219
勇俊	-14220
勤勉	-14221
包容	-14222
化身	-14223
区位	-14224
区间	-14225
医护	-14226
十八	-14227
十月	-14228
千上	-14229
千元	-14230
升学	-14231
升温	-14232
升至	-14233
升蓝	-14234
半天	-14235
华丽	-14236
华侨	-14237
单玻	-14238
单的	-14239
南路	-14240
南雅	-14241
博览	-14242
占到	-14243
占总	-14244
占领	-14245
卡彭	-14246
卡比	-14247
卫士	-14248
印记	-14249
却被	-14250
厚板	-14251
原告	-14252
原始	-14253
原文	-14254
原有	-14255
原木	-14256
原装	-14257
及市	-14258
双人	-14259
双赢	-14260
反中	-14261
反力	-14262
发后	-14263
发扬	-14264
发的	-14265
发稿	-14266
发觉	-14267
受害	-14268
受灾	-14269
受过	-14270
叙述	-14271
口径	-14272
口气	-14273
古老	-14274
古装	-14275
另类	-14276
只为	-14277
只剩	-14278
只想	-14279
只用	-14280
只需	-14281
可使	-14282
可信	-14283
可控	-14284
可转	-14285
可选	-14286
台词	-14287
号为	-14288
吃过	-14289
各样	-14290
合影	-14291
合照	-14292
合的	-14293
合约	-14294
合规	-14295
同仁	-14296
同伴	-14297
名优	-14298
名叫	-14299
后在	-14300
后赛	-14301
向前	-14302
向后	-14303
向好	-14304
君亭	-14305
含意	-14306
启蒙	-14307
吸烟	-14308
周转	-14309
呼声	-14310
命中	-14311
和手	-14312
和老	-14313
和高	-14314
咱们	-14315
品味	-14316
哈姆	-14317
哪儿	-14318
唐僧	-14319
唐山	-14320
唐律	-14321
商丘	-14322
啮合	-14323
喝彩	-14324
喝水	-14325
嘟嘟	-14326
器和	-14327
四周	-14328
四家	-14329
四肢	-14330
四萍	-14331
回落	-14332
回顾	-14333
回馈	-14334
团聚	-14335
困境	-14336
固态	-14337
固有	-14338
固然	-14339
国企	-14340
国办	-14341
国度	-14342
国的	-14343
图像	-14344
图和	-14345
图标	-14346
圆柱	-14347
在与	-14348
在佛	-14349
在你	-14350
在党	-14351
在分	-14352
在意	-14353
在港	-14354
在白	-14355
在职	-14356
在银	-14357
在锅	-14358
地和	-14359
地夺	-14360
地标	-14361
地的	-14362
地级	-14363
坐在	-14364
块状	-14365
基督	-14366
基线	-14367
基耶	-14368
堵坡	-14369
填报	-14370
填补	-14371
境外	-14372
增多	-14373
壁挂	-14374
壮阔	-14375
声中	-14376
声望	-14377
处子	-14378
复刻	-14379
外表	-14380
外貌	-14381
多多	-14382
多岁	-14383
多方	-14384
多用	-14385
大体	-14386
大变	-14387
大方	-14388
大牌	-14389
大调	-14390
大赉	-14391
大连	-14392
天人	-14393
天府	-14394
太好	-14395
太远	-14396
夫人	-14397
央行	-14398
失的	-14399
失踪	-14400
头和	-14401
头脑	-14402
夺得	-14403
奇妙	-14404
奇幻	-14405
奇异	-14406
契机	-14407
奖金	-14408
奶奶	-14409
如需	-14410
妥善	-14411
妥妥	-14412
姐姐	-14413
委屈	-14414
存放	-14415
孝子	-14416
孤儿	-14417
学史	-14418
学费	-14419
它为	-14420
守望	-14421
安东	-14422
安保	-14423
安广	-14424
安防	-14425
完备	-14426
完好	-14427
定子	-14428
宝贵	-14429
宝钢	-14430
实惠	-14431
审判	-14432
审慎	-14433
客制	-14434
宣讲	-14435
室和	-14436
害人	-14437
家园	-14438
家境	-14439
家属	-14440
家电	-14441
容颜	-14442
宾馆	-14443
宿州	-14444
寓言	-14445
对口	-14446
对我	-14447
对抗	-14448
寺内	-14449
导览	-14450
射击	-14451
射线	-14452
射阳	-14453
将从	-14454
将使	-14455
将女	-14456
将它	-14457
将比	-14458
将由	-14459
将达	-14460
小偷	-14461
小小	-14462
小度	-14463
小麦	-14464
尔瓦	-14465
就如	-14466
就诊	-14467
就餐	-14468
尼号	-14469
尽力	-14470
尽早	-14471
局势	-14472
层板	-14473
居前	-14474
居多	-14475
屋面	-14476
展区	-14477
屠宰	-14478
山上	-14479
山湖	-14480
崇拜	-14481
巅峰	-14482
川县	-14483
巡查	-14484
差不	-14485
差甚	-14486
已然	-14487
市值	-14488
市占	-14489
师大	-14490
希亚	-14491
带式	-14492
帷幕	-14493
平定	-14494
年产	-14495
年他	-14496
年会	-14497
年出	-14498
年末	-14499
年由	-14500
年级	-14501
年薪	-14502
年限	-14503
并网	-14504
幼虫	-14505
广汇	-14506
庄严	-14507
床垫	-14508
店员	-14509
店村	-14510
度时	-14511
座的	-14512
延迟	-14513
建站	-14514
开了	-14515
开来	-14516
开辟	-14517
张小	-14518
弯头	-14519
强制	-14520
强强	-14521
强悍	-14522
当作	-14523
当你	-14524
当劳	-14525
当量	-14526
彰显	-14527
影城	-14528
往的	-14529
征管	-14530
很不	-14531
很强	-14532
很短	-14533
得不	-14534
微笑	-14535
德州	-14536
德育	-14537
心为	-14538
心得	-14539
忠孝	-14540
忠实	-14541
忠诚	-14542
急于	-14543
急剧	-14544
急性	-14545
急需	-14546
性及	-14547
性大	-14548
性面	-14549
怪物	-14550
总之	-14551
总计	-14552
恶性	-14553
恶魔	-14554
悄悄	-14555
患部	-14556
悬挂	-14557
情报	-14558
情操	-14559
情的	-14560
惊奇	-14561
惠妍	-14562
想想	-14563
愉悦	-14564
意的	-14565
愚赫	-14566
感激	-14567
懂得	-14568
戏曲	-14569
戏码	-14570
成人	-14571
我便	-14572
我区	-14573
我去	-14574
或不	-14575
或有	-14576
战机	-14577
截止	-14578
截面	-14579
户型	-14580
户晓	-14581
所学	-14582
所属	-14583
所示	-14584
扁平	-14585
扇形	-14586
手续	-14587
手表	-14588
才可	-14589
打好	-14590
打孔	-14591
打着	-14592
执导	-14593
执照	-14594
找出	-14595
技艺	-14596
抑郁	-14597
投币	-14598
抗拒	-14599
折射	-14600
报讯	-14601
抵制	-14602
抵押	-14603
抹灰	-14604
抽样	-14605
拉丁	-14606
拉萨	-14607
拉雷	-14608
拉黑	-14609
拍卖	-14610
拍照	-14611
招办	-14612
招牌	-14613
拥挤	-14614
拼搏	-14615
拿大	-14616
挂在	-14617
指令	-14618
捐资	-14619
捕捉	-14620
掉了	-14621
掌控	-14622
探测	-14623
接纳	-14624
推展	-14625
描写	-14626
提起	-14627
插入	-14628
揭幕	-14629
撕裂	-14630
撤销	-14631
操场	-14632
操控	-14633
支梁	-14634
支点	-14635
支配	-14636
收取	-14637
改称	-14638
改良	-14639
放映	-14640
敌人	-14641
敌方	-14642
教会	-14643
敬意	-14644
敬请	-14645
数值	-14646
数控	-14647
数次	-14648
数百	-14649
文凭	-14650
文员	-14651
文斌	-14652
文物	-14653
文科	-14654
斐历	-14655
斗六	-14656
新股	-14657
新规	-14658
施食	-14659
旅居	-14660
旗袍	-14661
无力	-14662
无味	-14663
无害	-14664
无尽	-14665
无形	-14666
日夜	-14667
日月	-14668
日照	-14669
日用	-14670
早早	-14671
时对	-14672
时有	-14673
昆明	-14674
星人	-14675
春季	-14676
是使	-14677
是好	-14678
是家	-14679
是想	-14680
是集	-14681
晚饭	-14682
晶都	-14683
智库	-14684
智的	-14685
更直	-14686
最低	-14687
最有	-14688
月子	-14689
月末	-14690
月获	-14691
有何	-14692
有益	-14693
有近	-14694
朝鲜	-14695
期末	-14696
期现	-14697
木塔	-14698
未必	-14699
本人	-14700
本月	-14701
本校	-14702
本港	-14703
本片	-14704
本省	-14705
本节	-14706
机等	-14707
杀了	-14708
杀死	-14709
杂环	-14710
杆菌	-14711
李宁	-14712
杜绝	-14713
来之	-14714
来做	-14715
来回	-14716
杰伦	-14717
杰明	-14718
松木	-14719
板和	-14720
林顿	-14721
果实	-14722
果汁	-14723
果然	-14724
枝叶	-14725
枣粽	-14726
架桥	-14727
查阅	-14728
标兵	-14729
核算	-14730
桐乡	-14731
桥上	-14732
梅森	-14733
梭罗	-14734
梯队	-14735
检疫	-14736
森纳	-14737
森西	-14738
楼梯	-14739
概括	-14740
模仿	-14741
模压	-14742
模样	-14743
横跨	-14744
次的	-14745
欲望	-14746
歌舞	-14747
正面	-14748
武器	-14749
死了	-14750
死角	-14751
殊荣	-14752
残留	-14753
母语	-14754
每周	-14755
每种	-14756
毛巾	-14757
毛皮	-14758
毛细	-14759
民主	-14760
民办	-14761
民间	-14762
气和	-14763
气泡	-14764
气温	-14765
气的	-14766
气质	-14767
水化	-14768
水和	-14769
水的	-14770
汇总	-14771
汇演	-14772
沉睡	-14773
沥青	-14774
油桃	-14775
油脂	-14776
油腻	-14777
法人	-14778
法是	-14779
法门	-14780
泛滥	-14781
注射	-14782
洁具	-14783
洁净	-14784
活泼	-14785
活着	-14786
派出	-14787
流水	-14788
测定	-14789
浩特	-14790
浪潮	-14791
海口	-14792
海啸	-14793
海峡	-14794
液相	-14795
淀粉	-14796
淇淋	-14797
淡水	-14798
淬火	-14799
深感	-14800
深耕	-14801
清代	-14802
清新	-14803
渗漏	-14804
温柔	-14805
港人	-14806
滞后	-14807
滨海	-14808
漂浮	-14809
漏电	-14810
漫威	-14811
激昂	-14812
火山	-14813
火灾	-14814
灵异	-14815
点亮	-14816
点燃	-14817
炼的	-14818
烟草	-14819
热心	-14820
热水	-14821
热身	-14822
热闹	-14823
煎炸	-14824
煤替	-14825
煤油	-14826
爱上	-14827
爱人	-14828
爱慕	-14829
爵士	-14830
父子	-14831
片中	-14832
片子	-14833
版的	-14834
牌号	-14835
牛逼	-14836
牵头	-14837
特区	-14838
特聘	-14839
犹豫	-14840
狗铛	-14841
独具	-14842
猫咪	-14843
献上	-14844
王李	-14845
王继	-14846
玛丽	-14847
球阀	-14848
理应	-14849
理石	-14850
瓷砖	-14851
甄选	-14852
生于	-14853
生日	-14854
生疏	-14855
生锈	-14856
用作	-14857
电站	-14858
男主	-14859
男子	-14860
画作	-14861
画出	-14862
界定	-14863
畜牧	-14864
疏浚	-14865
癌物	-14866
白家	-14867
白酒	-14868
的他	-14869
的去	-14870
的双	-14871
的反	-14872
的子	-14873
的定	-14874
的树	-14875
的波	-14876
的真	-14877
的眼	-14878
的面	-14879
盆友	-14880
监考	-14881
盘绕	-14882
直觉	-14883
相爱	-14884
相识	-14885
省内	-14886
真为	-14887
眼底	-14888
着眼	-14889
督查	-14890
短暂	-14891
短线	-14892
石膏	-14893
矿山	-14894
矿物	-14895
码制	-14896
砂岩	-14897
研修	-14898
砖砌	-14899
硫化	-14900
硬币	-14901
确信	-14902
碳钢	-14903
碾压	-14904
磨具	-14905
示例	-14906
礼俗	-14907
神的	-14908
祥青	-14909
禄山	-14910
福田	-14911
私营	-14912
秉持	-14913
秋季	-14914
科隆	-14915
租房	-14916
称重	-14917
移植	-14918
税目	-14919
税费	-14920
稳健	-14921
稿中	-14922
穆帅	-14923
空白	-14924
空车	-14925
穿着	-14926
穿透	-14927
立场	-14928
竞速	-14929
端和	-14930
笔触	-14931
笔试	-14932
第九	-14933
等着	-14934
筷子	-14935
简历	-14936
简洁	-14937
简要	-14938
算是	-14939
管输	-14940
篾匠	-14941
粉体	-14942
粗糙	-14943
粘剂	-14944
精细	-14945
精通	-14946
紧跟	-14947
紧邻	-14948
紧随	-14949
红军	-14950
红梅	-14951
红领	-14952
约定	-14953
约束	-14954
级别	-14955
纳税	-14956
纳粹	-14957
纹理	-14958
线条	-14959
线索	-14960
绍剧	-14961
经的	-14962
绕组	-14963
绝热	-14964
绿茶	-14965
缉毒	-14966
编程	-14967
缴税	-14968
缴纳	-14969
网友	-14970
网址	-14971
网点	-14972
网球	-14973
网膜	-14974
网讯	-14975
网贷	-14976
罕见	-14977
罗琳	-14978
罚球	-14979
美女	-14980
翻新	-14981
老乡	-14982
老天	-14983
者为	-14984
而下	-14985
而将	-14986
而生	-14987
而被	-14988
而遇	-14989
耐性	-14990
耐火	-14991
联接	-14992
聘为	-14993
聚力	-14994
肉类	-14995
肌肤	-14996
肠道	-14997
肮脏	-14998
育碧	-14999
胜的	-15000
能可	-15001
能让	-15002
膝盖	-15003
自信	-15004
自在	-15005
自备	-15006
自家	-15007
自重	-15008
致富	-15009
致电	-15010
航班	-15011
良心	-15012
良性	-15013
色度	-15014
芈月	-15015
芝麻	-15016
芥蓝	-15017
苗圃	-15018
苦的	-15019
苦辣	-15020
英寸	-15021
范畴	-15022
茶席	-15023
草案	-15024
荣幸	-15025
莱雪	-15026
菌种	-15027
落到	-15028
落的	-15029
蒙托	-15030
蒸笼	-15031
虎丘	-15032
虚幻	-15033
蜕变	-15034
蜘蛛	-15035
蜻蜓	-15036
融洽	-15037
血压	-15038
行列	-15039
行者	-15040
街头	-15041
衣衫	-15042
补强	-15043
表决	-15044
表述	-15045
衰减	-15046
褚升	-15047
西环	-15048
西起	-15049
要从	-15050
要点	-15051
规避	-15052
视星	-15053
视线	-15054
角膜	-15055
解析	-15056
解说	-15057
解锁	-15058
触摸	-15059
警官	-15060
警惕	-15061
让步	-15062
议案	-15063
讯号	-15064
讯飞	-15065
讲师	-15066
论述	-15067
证照	-15068
评为	-15069
评分	-15070
评委	-15071
译本	-15072
诗人	-15073
该片	-15074
该省	-15075
语法	-15076
误导	-15077
误解	-15078
请于	-15079
调动	-15080
调和	-15081
调性	-15082
调解	-15083
谅解	-15084
谋取	-15085
豆瓣	-15086
财物	-15087
财经	-15088
败给	-15089
货运	-15090
贩卖	-15091
贯穿	-15092
赐于	-15093
赞成	-15094
赤字	-15095
走过	-15096
走进	-15097
赶紧	-15098
起诉	-15099
超市	-15100
超音	-15101
超高	-15102
越多	-15103
跑衣	-15104
跨越	-15105
路和	-15106
路的	-15107
踊跃	-15108
踏入	-15109
身处	-15110
身影	-15111
车身	-15112
转为	-15113
转子	-15114
轻工	-15115
轻量	-15116
轿车	-15117
较多	-15118
较差	-15119
较强	-15120
输油	-15121
辛辣	-15122
辣椒	-15123
边境	-15124
迅猛	-15125
过年	-15126
过时	-15127
过高	-15128
迈进	-15129
迎接	-15130
近乎	-15131
还原	-15132
还把	-15133
还真	-15134
还给	-15135
这在	-15136
这家	-15137
这让	-15138
进取	-15139
进村	-15140
进来	-15141
进销	-15142
远远	-15143
远销	-15144
迟迟	-15145
迪雅	-15146
追逐	-15147
退休	-15148
送达	-15149
选修	-15150
选取	-15151
选型	-15152
通史	-15153
通往	-15154
造纸	-15155
逼迫	-15156
遍及	-15157
遏制	-15158
遭到	-15159
遵义	-15160
邂逅	-15161
那天	-15162
邮报	-15163
邻里	-15164
部队	-15165
都曾	-15166
都督	-15167
配色	-15168
酱油	-15169
酸的	-15170
重温	-15171
野生	-15172
量为	-15173
金大	-15174
金奖	-15175
钻戒	-15176
铁塔	-15177
铁头	-15178
铜管	-15179
铸锭	-15180
销货	-15181
镀镍	-15182
长传	-15183
长子	-15184
长征	-15185
长效	-15186
门将	-15187
门诊	-15188
问我	-15189
闻名	-15190
阐述	-15191
防盗	-15192
防空	-15193
防部	-15194
阻抗	-15195
阿难	-15196
陀罗	-15197
陆总	-15198
陈设	-15199
降库	-15200
降雨	-15201
限于	-15202
院里	-15203
随即	-15204
随地	-15205
难免	-15206
难治	-15207
难点	-15208
雄伟	-15209
雅思	-15210
雇主	-15211
雪人	-15212
零食	-15213
露出	-15214
青少	-15215
靠近	-15216
面为	-15217
面包	-15218
面部	-15219
页岩	-15220
顶级	-15221
顺王	-15222
预料	-15223
领悟	-15224
领略	-15225
额度	-15226
风化	-15227
风吹	-15228
风情	-15229
飞速	-15230
餐馆	-15231
首创	-15232
首度	-15233
首条	-15234
首部	-15235
首饰	-15236
香味	-15237
马丁	-15238
马来	-15239
驾驭	-15240
骑行	-15241
高价	-15242
高层	-15243
高手	-15244
高档	-15245
高点	-15246
高盛	-15247
高贵	-15248
鬼畜	-15249
魔兽	-15250
鱼肉	-15251
鸡蛋	-15252
麻木	-15253
麻雀	-15254
黄鹤	-15255
黑暗	-15256
默契	-15257
默认	-15258
鼎华	-15259
齐备	-15260
龙的	-15261
%)。	-15262
(1.	-15263
(12	-15264
(19	-15265
)》(	-15266
**,	-15267
,17	-15268
,80	-15269
-10	-15270
-19	-15271
-30	-15272
1-2	-15273
10,	-15274
108	-15275
110	-15276
123	-15277
15.	-15278
2%、	-15279
22.	-15280
230	-15281
28%	-15282
3.0	-15283
32.	-15284
40.	-15285
450	-15286
47.	-15287
48.	-15288
5%。	-15289
55.	-15290
6%、	-15291
6%。	-15292
6.0	-15293
6.7	-15294
700	-15295
750	-15296
8.4	-15297
985	-15298
:02	-15299
:03	-15300
AAA	-15301
BBC	-15302
BTS	-15303
Bar	-15304
CBA	-15305
DIN	-15306
DNA	-15307
DVD	-15308
ERP	-15309
Gal	-15310
LCD	-15311
PIN	-15312
PPP	-15313
Pat	-15314
TFT	-15315
TRE	-15316
Vol	-15317
[1]	-15318
adw	-15319
aka	-15320
alk	-15321
ash	-15322
axy	-15323
eng	-15324
ert	-15325
hos	-15326
ift	-15327
ink	-15328
ish	-15329
lay	-15330
ood	-15331
ori	-15332
ort	-15333
ost	-15334
ote	-15335
oth	-15336
pad	-15337
pop	-15338
ure	-15339
yst	-15340
—19	-15341
▁1)	-15342
▁23	-15343
▁CS	-15344
▁GO	-15345
▁HS	-15346
▁ID	-15347
▁SX	-15348
▁——	-15349
▁一半	-15350
▁一向	-15351
▁一哈	-15352
▁一堆	-15353
▁一声	-15354
▁一是	-15355
▁一杯	-15356
▁一百	-15357
▁一眼	-15358
▁一辆	-15359
▁七点	-15360
▁三个	-15361
▁三天	-15362
▁下个	-15363
▁不久	-15364
▁不像	-15365
▁不准	-15366
▁不爱	-15367
▁不看	-15368
▁不胖	-15369
▁不许	-15370
▁不高	-15371
▁专门	-15372
▁世纪	-15373
▁中华	-15374
▁中间	-15375
▁为此	-15376
▁主人	-15377
▁丽江	-15378
▁举手	-15379
▁之间	-15380
▁互相	-15381
▁交通	-15382
▁亲亲	-15383
▁人才	-15384
▁人间	-15385
▁介个	-15386
▁介绍	-15387
▁从小	-15388
▁付出	-15389
▁代言	-15390
▁伙食	-15391
▁会议	-15392
▁传统	-15393
▁位置	-15394
▁何必	-15395
▁依旧	-15396
▁保证	-15397
▁候选	-15398
▁做个	-15399
▁停车	-15400
▁允许	-15401
▁元旦	-15402
▁充满	-15403
▁先生	-15404
▁全球	-15405
▁六个	-15406
▁六月	-15407
▁关心	-15408
▁其它	-15409
▁内心	-15410
▁凉鞋	-15411
▁出差	-15412
▁出行	-15413
▁分数	-15414
▁创作	-15415
▁到处	-15416
▁到家	-15417
▁刹车	-15418
▁前面	-15419
▁剧透	-15420
▁功能	-15421
▁加上	-15422
▁劳资	-15423
▁包括	-15424
▁十分	-15425
▁千万	-15426
▁午安	-15427
▁华为	-15428
▁卖萌	-15429
▁历史	-15430
▁压力	-15431
▁厨艺	-15432
▁发泄	-15433
▁叔叔	-15434
▁口感	-15435
▁只想	-15436
▁吃个	-15437
▁吃点	-15438
▁同感	-15439
▁唯一	-15440
▁嘎嘎	-15441
▁四川	-15442
▁回头	-15443
▁在乎	-15444
▁在此	-15445
▁坚强	-15446
▁多多	-15447
▁大理	-15448
▁大连	-15449
▁大雨	-15450
▁天鹰	-15451
▁太晚	-15452
▁太热	-15453
▁太远	-15454
▁太高	-15455
▁失恋	-15456
▁夸奖	-15457
▁奶奶	-15458
▁她们	-15459
▁好人	-15460
▁好喝	-15461
▁好帅	-15462
▁妈呀	-15463
▁娱乐	-15464
▁婚礼	-15465
▁嫂子	-15466
▁季节	-15467
▁孤独	-15468
▁学前	-15469
▁学学	-15470
▁学期	-15471
▁安排	-15472
▁安逸	-15473
▁安静	-15474
▁客服	-15475
▁寂静	-15476
▁小事	-15477
▁小区	-15478
▁小孩	-15479
▁小容	-15480
▁小赵	-15481
▁就够	-15482
▁岁月	-15483
▁巴西	-15484
▁带上	-15485
▁带来	-15486
▁帽子	-15487
▁年代	-15488
▁广告	-15489
▁店里	-15490
▁建筑	-15491
▁开工	-15492
▁当天	-15493
▁很少	-15494
▁很早	-15495
▁心中	-15496
▁心灵	-15497
▁心累	-15498
▁忍住	-15499
▁快去	-15500
▁快要	-15501
▁总之	-15502
▁您好	-15503
▁惊喜	-15504
▁想见	-15505
▁愉快	-15506
▁意义	-15507
▁意识	-15508
▁感触	-15509
▁愿望	-15510
▁戏份	-15511
▁成语	-15512
▁我哥	-15513
▁打败	-15514
▁打针	-15515
▁报名	-15516
▁报警	-15517
▁拖延	-15518
▁拜托	-15519
▁排队	-15520
▁提前	-15521
▁播出	-15522
▁收获	-15523
▁攻略	-15524
▁放心	-15525
▁文艺	-15526
▁新疆	-15527
▁新闻	-15528
▁无关	-15529
▁日日	-15530
▁时光	-15531
▁星球	-15532
▁是否	-15533
▁显然	-15534
▁晚会	-15535
▁曾经	-15536
▁最大	-15537
▁最强	-15538
▁月饼	-15539
▁有效	-15540
▁有毒	-15541
▁有用	-15542
▁服务	-15543
▁本书	-15544
▁来自	-15545
▁林逸	-15546
▁某人	-15547
▁桃子	-15548
▁梦到	-15549
▁歌手	-15550
▁殉情	-15551
▁毛毛	-15552
▁气球	-15553
▁水果	-15554
▁求带	-15555
▁求教	-15556
▁汉子	-15557
▁没去	-15558
▁没钱	-15559
▁活塞	-15560
▁活着	-15561
▁淡定	-15562
▁清明	-15563
▁温州	-15564
▁温度	-15565
▁游泳	-15566
▁湖北	-15567
▁满分	-15568
▁满意	-15569
▁火车	-15570
▁火锅	-15571
▁爱国	-15572
▁版本	-15573
▁现场	-15574
▁生快	-15575
▁由此	-15576
▁男孩	-15577
▁直白	-15578
▁相思	-15579
▁眉毛	-15580
▁看吧	-15581
▁看得	-15582
▁真好	-15583
▁真有	-15584
▁真正	-15585
▁真相	-15586
▁眼光	-15587
▁眼泪	-15588
▁眼里	-15589
▁睫毛	-15590
▁瞬间	-15591
▁矜持	-15592
▁矫情	-15593
▁礼拜	-15594
▁社长	-15595
▁祝你	-15596
▁积极	-15597
▁空间	-15598
▁算是	-15599
▁管住	-15600
▁篮球	-15601
▁精神	-15602
▁组合	-15603
▁绿豆	-15604
▁编剧	-15605
▁网红	-15606
▁羊肉	-15607
▁美人	-15608
▁胖子	-15609
▁能够	-15610
▁能量	-15611
▁脸大	-15612
▁至少	-15613
▁英雄	-15614
▁蛋糕	-15615
▁表演	-15616
▁装修	-15617
▁观察	-15618
▁计较	-15619
▁认为	-15620
▁讨论	-15621
▁记住	-15622
▁设备	-15623
▁证明	-15624
▁说出	-15625
▁说好	-15626
▁说完	-15627
▁请客	-15628
▁请教	-15629
▁谦虚	-15630
▁豆浆	-15631
▁贵阳	-15632
▁路线	-15633
▁跳舞	-15634
▁轻松	-15635
▁过奖	-15636
▁还会	-15637
▁还行	-15638
▁这儿	-15639
▁进步	-15640
▁远方	-15641
▁迟到	-15642
▁追求	-15643
▁适应	-15644
▁通常	-15645
▁那款	-15646
▁郑州	-15647
▁阳光	-15648
▁陌生	-15649
▁隐形	-15650
▁隔壁	-15651
▁难以	-15652
▁难吃	-15653
▁难得	-15654
▁集团	-15655
▁面包	-15656
▁面对	-15657
▁鞋子	-15658
▁顺利	-15659
▁频繁	-15660
▁飞飞	-15661
▁食欲	-15662
▁饭卡	-15663
▁饼干	-15664
▁高原	-15665
▁高某	-15666
▁高级	-15667
▁高铁	-15668
▁鸡汤	-15669
▁鸡蛋	-15670
▁鼓励	-15671
。1、	-15672
。3、	-15673
一个多	-15674
一亿元	-15675
一件事	-15676
一期中	-15677
一本书	-15678
一段落	-15679
一流的	-15680
一等奖	-15681
一般是	-15682
万人次	-15683
万亿元	-15684
万英镑	-15685
上交所	-15686
上市后	-15687
上没有	-15688
上班族	-15689
不一样	-15690
不亏不	-15691
不允许	-15692
不发生	-15693
不可分	-15694
不合理	-15695
不完善	-15696
不属于	-15697
不平衡	-15698
不得已	-15699
不是很	-15700
不能再	-15701
不论是	-15702
不进行	-15703
与人类	-15704
与企业	-15705
与应用	-15706
与建筑	-15707
与思考	-15708
丢失的	-15709
两年内	-15710
两年的	-15711
严格的	-15712
个人的	-15713
个月的	-15714
中一个	-15715
中央和	-15716
中提取	-15717
为主体	-15718
为主要	-15719
为今后	-15720
为原料	-15721
为目标	-15722
主人的	-15723
主持的	-15724
之日起	-15725
也不同	-15726
也是很	-15727
也有过	-15728
也都是	-15729
了一批	-15730
了一项	-15731
了出来	-15732
了起来	-15733
事件的	-15734
于上海	-15735
些什么	-15736
交易日	-15737
交流会	-15738
产品光	-15739
产品或	-15740
人一样	-15741
人事迹	-15742
人员外	-15743
人性化	-15744
人来说	-15745
人能够	-15746
亿元和	-15747
亿美金	-15748
从全国	-15749
从远处	-15750
他人的	-15751
他们都	-15752
他可以	-15753
他指出	-15754
代表了	-15755
代言人	-15756
令大选	-15757
以保证	-15758
以服务	-15759
以防止	-15760
价值和	-15761
价值的	-15762
价值观	-15763
企业都	-15764
会议上	-15765
会选择	-15766
会造成	-15767
但后来	-15768
但是在	-15769
但还是	-15770
但这个	-15771
低成本	-15772
低温下	-15773
低风险	-15774
体积小	-15775
佛家的	-15776
使中国	-15777
使命感	-15778
侵入性	-15779
保持环	-15780
保障了	-15781
信息流	-15782
倍以上	-15783
值中性	-15784
做到了	-15785
免疫力	-15786
全球的	-15787
八音琴	-15788
六车道	-15789
共同体	-15790
关漫道	-15791
关系中	-15792
关键的	-15793
养老金	-15794
兼任主	-15795
内部的	-15796
写了一	-15797
写文章	-15798
农家乐	-15799
冥冥中	-15800
净化城	-15801
准备的	-15802
出一份	-15803
出不穷	-15804
出降回	-15805
分数线	-15806
分辨率	-15807
分钟的	-15808
判标准	-15809
利塔诺	-15810
别人的	-15811
到县衙	-15812
到正规	-15813
到现在	-15814
制成的	-15815
制片人	-15816
制药厂	-15817
制造的	-15818
前一周	-15819
前不久	-15820
前所未	-15821
剩下的	-15822
副本的	-15823
副校长	-15824
办事处	-15825
加入了	-15826
加入到	-15827
动起来	-15828
努力和	-15829
劳动者	-15830
包含了	-15831
北方的	-15832
区面积	-15833
医生的	-15834
十五日	-15835
十周年	-15836
十四五	-15837
十年代	-15838
半决赛	-15839
半年的	-15840
卓越的	-15841
单字的	-15842
单玻窗	-15843
单饼机	-15844
南美洲	-15845
博努奇	-15846
博物院	-15847
博览会	-15848
占有率	-15849
危险的	-15850
厂家的	-15851
历史上	-15852
历史和	-15853
原则是	-15854
及其它	-15855
及支付	-15856
及管理	-15857
双一流	-15858
发展与	-15859
另一方	-15860
只是一	-15861
可以以	-15862
可以给	-15863
可实现	-15864
可提高	-15865
可直接	-15866
可行的	-15867
可转换	-15868
可靠性	-15869
同样是	-15870
后即可	-15871
后方可	-15872
后进入	-15873
向大家	-15874
吸收剂	-15875
周增幅	-15876
周边的	-15877
周鹏在	-15878
命运的	-15879
和分析	-15880
和发送	-15881
和她的	-15882
和学习	-15883
和平里	-15884
和成本	-15885
和挫折	-15886
和文化	-15887
和方法	-15888
和消费	-15889
和空气	-15890
和行业	-15891
和问题	-15892
品工业	-15893
品牌时	-15894
哈德森	-15895
商品的	-15896
因为它	-15897
因为我	-15898
因为这	-15899
在不断	-15900
在他们	-15901
在各种	-15902
在学习	-15903
在学校	-15904
在实际	-15905
在工业	-15906
在当时	-15907
在新的	-15908
在施工	-15909
在春天	-15910
在机场	-15911
在行业	-15912
在路上	-15913
在里面	-15914
在门口	-15915
地中海	-15916
地夺走	-15917
场竞赛	-15918
坚定了	-15919
培养的	-15920
基耶萨	-15921
塑料的	-15922
增加值	-15923
复杂度	-15924
复杂的	-15925
外交部	-15926
外孙女	-15927
多伦多	-15928
多少人	-15929
多少钱	-15930
多层次	-15931
多样性	-15932
多用于	-15933
大东环	-15934
大伙儿	-15935
大大的	-15936
大家对	-15937
大家都	-15938
大梦主	-15939
大股东	-15940
大自然	-15941
大面积	-15942
天文学	-15943
失去了	-15944
失败的	-15945
奇异果	-15946
奉天省	-15947
奥兰治	-15948
女性的	-15949
女朋友	-15950
女生的	-15951
好莱坞	-15952
如果有	-15953
孙中山	-15954
孟加拉	-15955
季后赛	-15956
季度的	-15957
学习了	-15958
学习和	-15959
学有所	-15960
学校与	-15961
学生组	-15962
孩政策	-15963
它们的	-15964
它允许	-15965
守岛人	-15966
安全和	-15967
安公主	-15968
宗室女	-15969
宝宝的	-15970
实用的	-15971
宣布了	-15972
宴会厅	-15973
家长的	-15974
密度板	-15975
密檐式	-15976
对业务	-15977
对公司	-15978
对其他	-15979
对模式	-15980
对环境	-15981
对记者	-15982
将如何	-15983
将提高	-15984
小朋友	-15985
就好像	-15986
就无法	-15987
就有了	-15988
就足够	-15989
尺寸和	-15990
尽相同	-15991
岁以上	-15992
工业区	-15993
工作和	-15994
工作时	-15995
工商局	-15996
工程等	-15997
差不多	-15998
已经是	-15999
布拉特	-16000
布雷克	-16001
师生的	-16002
希望对	-16003
带林业	-16004
带领下	-16005
帮助的	-16006
常温下	-16007
常规赛	-16008
年增长	-16009
年年底	-16010
年战胜	-16011
年相比	-16012
年获得	-16013
并分别	-16014
并发症	-16015
并结合	-16016
应尽量	-16017
应用型	-16018
应该是	-16019
康普顿	-16020
康沃尔	-16021
延伸性	-16022
建筑与	-16023
建设与	-16024
建设中	-16025
开发者	-16026
开山岛	-16027
引入了	-16028
当地的	-16029
形势下	-16030
很可能	-16031
很清楚	-16032
很简单	-16033
得不好	-16034
得出的	-16035
得那么	-16036
微型驴	-16037
心的去	-16038
忍不住	-16039
性能的	-16040
性质的	-16041
性面瘫	-16042
总动员	-16043
总投资	-16044
情况的	-16045
意见和	-16046
戏剧节	-16047
成千上	-16048
我们所	-16049
或者是	-16050
战略性	-16051
戴口罩	-16052
所以它	-16053
所在省	-16054
所大学	-16055
所有制	-16056
手中的	-16057
才能在	-16058
扎扎实	-16059
打电话	-16060
找到的	-16061
把自己	-16062
投资于	-16063
抛转成	-16064
报告中	-16065
拉雷多	-16066
拟制定	-16067
拯救你	-16068
持公司	-16069
据统计	-16070
授人以	-16071
接受了	-16072
接受的	-16073
控制在	-16074
控制点	-16075
提供更	-16076
提到的	-16077
搭建了	-16078
摄像头	-16079
摄影师	-16080
支付宝	-16081
支持与	-16082
收入约	-16083
收购的	-16084
改扩建	-16085
改编自	-16086
效果差	-16087
敌方的	-16088
教师组	-16089
教师节	-16090
教育厅	-16091
教育学	-16092
新募集	-16093
新思惟	-16094
新面貌	-16095
方便的	-16096
方法是	-16097
无任何	-16098
无数的	-16099
旧金山	-16100
时期的	-16101
时间都	-16102
时需要	-16103
是一支	-16104
是一门	-16105
是企业	-16106
是全国	-16107
是冶金	-16108
是利用	-16109
是否能	-16110
是影响	-16111
是怎样	-16112
是新疆	-16113
是来自	-16114
是清科	-16115
是解决	-16116
是采用	-16117
普陀区	-16118
智能杆	-16119
更高效	-16120
最后一	-16121
最让人	-16122
有信心	-16123
有几个	-16124
有助于	-16125
有害的	-16126
有很大	-16127
有普通	-16128
有资格	-16129
服务是	-16130
服饰品	-16131
期工程	-16132
期待的	-16133
未超过	-16134
本来就	-16135
机器人	-16136
机构的	-16137
李女士	-16138
李志刚	-16139
李怀节	-16140
李愚赫	-16141
材料是	-16142
条禁止	-16143
来不及	-16144
来选择	-16145
杯冠军	-16146
构建起	-16147
构成的	-16148
枢纽站	-16149
标志性	-16150
校园内	-16151
根本上	-16152
桑尼号	-16153
楼宇有	-16154
概念股	-16155
正下方	-16156
正在做	-16157
正处于	-16158
母亲的	-16159
每一次	-16160
每一步	-16161
每个月	-16162
民众说	-16163
水平上	-16164
水载型	-16165
永远都	-16166
求生存	-16167
汪文斌	-16168
没那么	-16169
治理的	-16170
法庭的	-16171
洮北区	-16172
洮南府	-16173
洮安县	-16174
活动和	-16175
消费券	-16176
消防站	-16177
混合物	-16178
添加剂	-16179
清晰的	-16180
渗透率	-16181
温暖的	-16182
温湿度	-16183
渲染图	-16184
满意的	-16185
满足了	-16186
满足和	-16187
演出和	-16188
潜力股	-16189
潜意识	-16190
潜规则	-16191
激光器	-16192
灵活性	-16193
炎热的	-16194
点符号	-16195
热处理	-16196
热衷于	-16197
然后放	-16198
特大桥	-16199
王继才	-16200
环境中	-16201
现在他	-16202
现在是	-16203
现金流	-16204
班主任	-16205
球队的	-16206
理解和	-16207
生产商	-16208
生产量	-16209
生存的	-16210
生态学	-16211
用公款	-16212
申报的	-16213
申请人	-16214
电化学	-16215
电火花	-16216
男主角	-16217
疫情的	-16218
的一位	-16219
的一致	-16220
的一部	-16221
的主人	-16222
的主体	-16223
的事项	-16224
的人的	-16225
的优点	-16226
的优秀	-16227
的信号	-16228
的信念	-16229
的公告	-16230
的内存	-16231
的制造	-16232
的加入	-16233
的动力	-16234
的困扰	-16235
的国际	-16236
的增加	-16237
的复合	-16238
的大幅	-16239
的好坏	-16240
的好处	-16241
的学校	-16242
的安全	-16243
的家长	-16244
的容颜	-16245
的工艺	-16246
的干燥	-16247
的总和	-16248
的意义	-16249
的意识	-16250
的挑战	-16251
的推进	-16252
的方面	-16253
的日常	-16254
的时期	-16255
的普通	-16256
的最佳	-16257
的有关	-16258
的机遇	-16259
的标志	-16260
的水平	-16261
的油耗	-16262
的消费	-16263
的火锅	-16264
的热门	-16265
的特征	-16266
的特殊	-16267
的现代	-16268
的理由	-16269
的理论	-16270
的生意	-16271
的申请	-16272
的系统	-16273
的绘画	-16274
的编剧	-16275
的胜利	-16276
的良好	-16277
的英语	-16278
的见证	-16279
的评价	-16280
的趋势	-16281
的迹象	-16282
的速度	-16283
的频率	-16284
的风格	-16285
的高温	-16286
的高级	-16287
直接与	-16288
相差甚	-16289
看上去	-16290
真实的	-16291
真的是	-16292
真诚的	-16293
着每个	-16294
知名的	-16295
知识点	-16296
研究和	-16297
确定为	-16298
种情况	-16299
科学厅	-16300
科学的	-16301
科技的	-16302
科研和	-16303
称内径	-16304
程序员	-16305
空压机	-16306
窣堵坡	-16307
立大学	-16308
立方米	-16309
立足于	-16310
竞争中	-16311
笔记本	-16312
笛卡尔	-16313
符合性	-16314
第一代	-16315
第一位	-16316
第一批	-16317
第三届	-16318
第三次	-16319
第三部	-16320
第十三	-16321
第十五	-16322
等功能	-16323
等小幅	-16324
等工业	-16325
等涨幅	-16326
简单地	-16327
管理等	-16328
篇文章	-16329
粉丝们	-16330
精神的	-16331
精选辑	-16332
系主任	-16333
系统地	-16334
紫外线	-16335
红十字	-16336
红领巾	-16337
级别的	-16338
纪念章	-16339
纪念馆	-16340
纽约市	-16341
经验和	-16342
结合的	-16343
结束时	-16344
结构与	-16345
继续做	-16346
缩短了	-16347
网北京	-16348
美元的	-16349
美国队	-16350
老师和	-16351
而且是	-16352
而对于	-16353
而是在	-16354
聚集了	-16355
肺功能	-16356
胶粘剂	-16357
能力强	-16358
能够给	-16359
能耗的	-16360
自己是	-16361
自来水	-16362
自然是	-16363
自组版	-16364
至少有	-16365
舞蹈训	-16366
艺术的	-16367
节目员	-16368
芥菜籽	-16369
范围的	-16370
茶百道	-16371
荒漠化	-16372
荞麦饼	-16373
营口市	-16374
蕴含着	-16375
融资难	-16376
螺栓的	-16377
表现出	-16378
装置和	-16379
装订机	-16380
裴勇俊	-16381
西校园	-16382
要不然	-16383
要回答	-16384
要通过	-16385
观众席	-16386
视网膜	-16387
计划书	-16388
计划向	-16389
认识到	-16390
让观众	-16391
记者从	-16392
设备是	-16393
设计要	-16394
话剧团	-16395
该协议	-16396
该集团	-16397
说我们	-16398
请注明	-16399
谢成重	-16400
负荷的	-16401
负责任	-16402
责任制	-16403
购买了	-16404
资源库	-16405
走到了	-16406
赵令皓	-16407
越南语	-16408
足进入	-16409
踏实地	-16410
轻工业	-16411
较低的	-16412
较长的	-16413
达线率	-16414
过去的	-16415
运营的	-16416
近距离	-16417
还必须	-16418
还是在	-16419
还特别	-16420
还能够	-16421
还表示	-16422
这三种	-16423
这两种	-16424
这样就	-16425
这部分	-16426
这里的	-16427
连锁店	-16428
追溯到	-16429
造成了	-16430
逻辑学	-16431
遭遇了	-16432
邀请了	-16433
都无法	-16434
都有着	-16435
配备了	-16436
酪氨酸	-16437
金刚座	-16438
金惠妍	-16439
销售额	-16440
问自己	-16441
问题时	-16442
队长董	-16443
防沉迷	-16444
防腐蚀	-16445
阶段性	-16446
阿姨的	-16447
阿森纳	-16448
陈凯歌	-16449
院领导	-16450
除尘器	-16451
隐藏在	-16452
隐藏着	-16453
集中的	-16454
集团的	-16455
面积大	-16456
韩国队	-16457
音乐奖	-16458
项目于	-16459
颁发的	-16460
预报名	-16461
领域和	-16462
领导者	-16463
饰演女	-16464
饿了么	-16465
马德里	-16466
高标准	-16467
鲁店村	-16468
黄某家	-16469
齿啮合	-16470
(190	-16471
,304	-16472
10%,	-16473
1901	-16474
1956	-16475
1994	-16476
1999	-16477
200°	-16478
25%。	-16479
26%。	-16480
3600	-16481
39%。	-16482
50%。	-16483
8000	-16484
:022	-16485
Card	-16486
Data	-16487
Lock	-16488
Univ	-16489
aine	-16490
ital	-16491
oden	-16492
oldf	-16493
ount	-16494
pple	-16495
ster	-16496
test	-16497
▁105	-16498
▁121	-16499
▁520	-16500
▁Ass	-16501
▁FIN	-16502
▁Mon	-16503
▁NEX	-16504
▁三七粉	-16505
▁从来不	-16506
▁充电器	-16507
▁全世界	-16508
▁几块钱	-16509
▁刘振亚	-16510
▁前男友	-16511
▁剪头发	-16512
▁加拿大	-16513
▁发电机	-16514
▁哈尔滨	-16515
▁大部分	-16516
▁太好了	-16517
▁女孩子	-16518
▁好了吗	-16519
▁如果您	-16520
▁字符串	-16521
▁廖县令	-16522
▁张联东	-16523
▁慢慢来	-16524
▁我觉得	-16525
▁打电话	-16526
▁拍照片	-16527
▁据介绍	-16528
▁接下来	-16529
▁放不下	-16530
▁新能源	-16531
▁无论是	-16532
▁有时候	-16533
▁朋友圈	-16534
▁段时间	-16535
▁每个人	-16536
▁没关系	-16537
▁没吃过	-16538
▁活动中	-16539
▁流口水	-16540
▁清明节	-16541
▁看一遍	-16542
▁研究所	-16543
▁第一个	-16544
▁第一天	-16545
▁第二天	-16546
▁算不算	-16547
▁综合体	-16548
▁萌呆萌	-16549
▁试试看	-16550
▁谢克昌	-16551
。”——	-16552
一个月内	-16553
一个期待	-16554
一直以来	-16555
一直坚持	-16556
一级资质	-16557
一般来说	-16558
一起成为	-16559
万亿美元	-16560
上市企业	-16561
上海申花	-16562
上海自贸	-16563
下一阶段	-16564
不仅可以	-16565
不利影响	-16566
不匹配时	-16567
不同之处	-16568
不同程度	-16569
不断上升	-16570
不断发展	-16571
不断扩大	-16572
不断推进	-16573
不期而遇	-16574
不知道要	-16575
与日俱增	-16576
与此同时	-16577
与独孤明	-16578
专业从事	-16579
专业化的	-16580
专业课程	-16581
专家指出	-16582
专项检查	-16583
业务布局	-16584
业绩贡献	-16585
两个方面	-16586
严格执行	-16587
中国足协	-16588
中央大街	-16589
中小学生	-16590
中标单位	-16591
中流砥柱	-16592
为进一步	-16593
主营业务	-16594
主要内容	-16595
也是如此	-16596
事业发展	-16597
二十五年	-16598
二线城市	-16599
于一体的	-16600
交易席位	-16601
交流活动	-16602
交相辉映	-16603
交通事故	-16604
交通工具	-16605
产品类别	-16606
享受生活	-16607
人们生活	-16608
人性化的	-16609
人民银行	-16610
人类分裂	-16611
人类活动	-16612
人类生活	-16613
人类相信	-16614
人脸识别	-16615
仅供参考	-16616
仓储货架	-16617
他们没有	-16618
付费推广	-16619
代表性的	-16620
以及企业	-16621
价格同步	-16622
价格指数	-16623
价格方面	-16624
任何一个	-16625
任何顺利	-16626
会员企业	-16627
会展中心	-16628
会有什么	-16629
传入中国	-16630
传动原理	-16631
传统戏剧	-16632
传统美德	-16633
传统节日	-16634
但却给人	-16635
但是没有	-16636
低于全国	-16637
低于预期	-16638
低碳生活	-16639
体制机制	-16640
体检工作	-16641
体育场馆	-16642
佣金席位	-16643
佩戴口罩	-16644
使用条件	-16645
俄罗斯的	-16646
保护国家	-16647
保险公司	-16648
信息安全	-16649
借贷计划	-16650
做到最好	-16651
储能工业	-16652
充分利用	-16653
充分肯定	-16654
充满著了	-16655
先行先试	-16656
党组书记	-16657
入学考试	-16658
全体党员	-16659
全体成员	-16660
全线覆盖	-16661
全自动化	-16662
公共建筑	-16663
公开发表	-16664
公开招标	-16665
公益计划	-16666
公认的评	-16667
公路学院	-16668
兰州中研	-16669
关注我们	-16670
其中地方	-16671
其他游戏	-16672
再次出现	-16673
军事清单	-16674
冠军而战	-16675
冠脉介入	-16676
冷链物流	-16677
创新发展	-16678
创新租赁	-16679
初级和中	-16680
利昂贝利	-16681
前景增添	-16682
前来咨询	-16683
副总经理	-16684
办学行为	-16685
加华资本	-16686
加速发展	-16687
动力中心	-16688
勘察设计	-16689
化工行业	-16690
北方采暖	-16691
医疗技术	-16692
医院接受	-16693
华北水利	-16694
协同发展	-16695
卖保健品	-16696
卫星频道	-16697
历史时间	-16698
去年年底	-16699
又回到了	-16700
反力支架	-16701
发展前途	-16702
发展态势	-16703
发展迅速	-16704
发布招聘	-16705
发生重大	-16706
变化团队	-16707
只是一个	-16708
只有一个	-16709
可以从事	-16710
可以保证	-16711
可以实现	-16712
可以提供	-16713
可以提高	-16714
可以有效	-16715
可以自行	-16716
可以轻松	-16717
可以进行	-16718
可以避免	-16719
各部门要	-16720
合法权益	-16721
合理利用	-16722
合肥视星	-16723
同时提供	-16724
同济大学	-16725
后顾之忧	-16726
君亭酒店	-16727
启蒙运动	-16728
吸塑包装	-16729
告一段落	-16730
员工增持	-16731
周一闭馆	-16732
和物联网	-16733
哈姆雷特	-16734
哲学体系	-16735
商业中心	-16736
商家来说	-16737
商报记者	-16738
喜剧种类	-16739
四个方面	-16740
回味无穷	-16741
因为没有	-16742
团队副本	-16743
固定位置	-16744
国家发展	-16745
国际关系	-16746
在一起的	-16747
在国家队	-16748
在线监测	-16749
在这方面	-16750
地方政府	-16751
场比赛中	-16752
均匀分布	-16753
垃圾处理	-16754
培训工作	-16755
培训项目	-16756
基本药物	-16757
增长速度	-16758
多种多样	-16759
大专院校	-16760
大众创业	-16761
大学哲学	-16762
大家能够	-16763
大幅下降	-16764
大幅提高	-16765
大数据库	-16766
女性饰品	-16767
如何保持	-16768
存在一些	-16769
季度上升	-16770
学习党的	-16771
学术交流	-16772
宗室出女	-16773
定期开放	-16774
实用新型	-16775
实际情况	-16776
实际需求	-16777
实验教学	-16778
审议通过	-16779
宣传活动	-16780
室内展厅	-16781
家子公司	-16782
容易导致	-16783
对于平台	-16784
对美出口	-16785
导致公司	-16786
将被罚款	-16787
尔杰弗森	-16788
尚未得到	-16789
就让我们	-16790
就足够了	-16791
尽管失败	-16792
层出不穷	-16793
山东高速	-16794
工业革命	-16795
工程力学	-16796
工程监理	-16797
帮助企业	-16798
干部职工	-16799
年上半年	-16800
年以来的	-16801
年半年度	-16802
年奥运会	-16803
并不一定	-16804
并不容易	-16805
并不怎么	-16806
广告宣传	-16807
广播公司	-16808
广汇飞虎	-16809
广泛用于	-16810
应急管理	-16811
应用领域	-16812
座谈会上	-16813
建议大家	-16814
建设工程	-16815
引导学生	-16816
强有力的	-16817
当天中午	-16818
徐熙娣首	-16819
必不可少	-16820
必须得到	-16821
快递公司	-16822
怎么解决	-16823
怎样才能	-16824
急速增加	-16825
性消声器	-16826
总的来说	-16827
总部位于	-16828
总销量为	-16829
恢复正常	-16830
患部皮肤	-16831
情况天包	-16832
想不到的	-16833
感到困惑	-16834
成员数量	-16835
我们一起	-16836
我的爱人	-16837
所以人们	-16838
所以他们	-16839
所以没有	-16840
所有商品	-16841
才可以在	-16842
打造一个	-16843
承担责任	-16844
承载能力	-16845
技术中心	-16846
技术水平	-16847
技术监督	-16848
技术研究	-16849
技术规范	-16850
投资机构	-16851
抵押贷款	-16852
拉萨尼亚	-16853
拜登政府	-16854
指挥中心	-16855
推动作用	-16856
提升品牌	-16857
摄影图片	-16858
操作简便	-16859
操作系统	-16860
支梁冲击	-16861
政协委员	-16862
政府机关	-16863
数字表示	-16864
数据分析	-16865
文化理念	-16866
文明发展	-16867
新华社发	-16868
新楼医院	-16869
方向发展	-16870
方式进行	-16871
旅游景点	-16872
旅游服务	-16873
无与伦比	-16874
无处不在	-16875
无法理解	-16876
无法达到	-16877
无限公司	-16878
日益突出	-16879
时尚潮流	-16880
时要注意	-16881
是一朵花	-16882
是否异常	-16883
是近些年	-16884
显示者的	-16885
显著提升	-16886
普及率为	-16887
智能系统	-16888
更加安全	-16889
月份中外	-16890
有些患者	-16891
有关事项	-16892
有关情况	-16893
有可能会	-16894
有更多的	-16895
有的人心	-16896
有限企业	-16897
未来几年	-16898
未来发展	-16899
本报消息	-16900
本次活动	-16901
机构合作	-16902
机械制造	-16903
机械工业	-16904
机械工程	-16905
机械行业	-16906
权威机构	-16907
林志玲的	-16908
某个字符	-16909
柳林沟村	-16910
检测机构	-16911
橡胶软管	-16912
正式成立	-16913
每个展位	-16914
比上周增	-16915
比赛场地	-16916
民族地区	-16917
民用建筑	-16918
水土流失	-16919
水电大学	-16920
水质监测	-16921
汽车音响	-16922
没有得到	-16923
没有必要	-16924
油气行业	-16925
治疗方法	-16926
沿线国家	-16927
法律体系	-16928
波利塔诺	-16929
活塞队在	-16930
流体力学	-16931
测量技术	-16932
海外侨胞	-16933
海岸防护	-16934
海洋书写	-16935
消费人群	-16936
消费信贷	-16937
深入了解	-16938
渗透率为	-16939
满足用户	-16940
灯光效果	-16941
煤炭生产	-16942
煤炭行业	-16943
版和限定	-16944
物流运输	-16945
特定副本	-16946
特长基线	-16947
环保部门	-16948
环境治理	-16949
环比增长	-16950
现代化的	-16951
现代社会	-16952
现在很多	-16953
现有员工	-16954
珠宝道具	-16955
理工大学	-16956
理想信念	-16957
生产增长	-16958
生产总值	-16959
生产技术	-16960
生态平衡	-16961
生活环境	-16962
申请注册	-16963
电力科技	-16964
电脑丢失	-16965
电采暖炉	-16966
留学人员	-16967
病例讨论	-16968
百香果的	-16969
的创业者	-16970
的可能性	-16971
的大股东	-16972
的孩子们	-16973
的影响力	-16974
的成绩单	-16975
的生活费	-16976
的第一步	-16977
的艺术品	-16978
的银行家	-16979
监管部门	-16980
相关企业	-16981
相发电机	-16982
相对而言	-16983
相结合的	-16984
看起来像	-16985
真为朋友	-16986
知名企业	-16987
研究人员	-16988
研究结果	-16989
硬件设备	-16990
硬质塑料	-16991
确保安全	-16992
碳纤维的	-16993
社会保险	-16994
社会生活	-16995
福田时代	-16996
种类繁多	-16997
科学赐于	-16998
科研机构	-16999
积极推进	-17000
程式教育	-17001
税收筹划	-17002
空气质量	-17003
竞争力的	-17004
竣工面积	-17005
第一产业	-17006
第二产业	-17007
等多方面	-17008
管理工作	-17009
管输原油	-17010
精确位置	-17011
紧密结合	-17012
紧随其后	-17013
组织领导	-17014
终端客户	-17015
经常出现	-17016
经济损失	-17017
绝对精神	-17018
统一安排	-17019
统计显示	-17020
继续增加	-17021
维持用户	-17022
综合交通	-17023
网络保护	-17024
美丽乡村	-17025
美元基金	-17026
美元开启	-17027
美味可口	-17028
美术教室	-17029
美术教师	-17030
美联储或	-17031
考务工作	-17032
职业发展	-17033
股权转让	-17034
股票代码	-17035
育碧游戏	-17036
肿瘤医院	-17037
能够拥有	-17038
能源消费	-17039
自动取款	-17040
自动驾驶	-17041
舞蹈新星	-17042
艺术创意	-17043
苗圃基地	-17044
药用植物	-17045
获得更多	-17046
营养成分	-17047
虚拟仿真	-17048
蜻蜓读物	-17049
融合发展	-17050
行业增长	-17051
行政审批	-17052
被认定为	-17053
覆钵式塔	-17054
视觉康复	-17055
认为当前	-17056
许多其他	-17057
设备齐全	-17058
设计风格	-17059
证照分离	-17060
评价体系	-17061
评级机构	-17062
诚信为本	-17063
诚信教育	-17064
诚信经营	-17065
该电影的	-17066
语言课程	-17067
课程内容	-17068
调查分析	-17069
负责管理	-17070
质量体系	-17071
质量得分	-17072
质量管理	-17073
贫煤地区	-17074
资产投资	-17075
资料显示	-17076
资本合作	-17077
超越达人	-17078
足球直播	-17079
较为有限	-17080
迅速发展	-17081
过程中的	-17082
运动项目	-17083
近几年来	-17084
还是比较	-17085
这个企业	-17086
这个时期	-17087
这个男孩	-17088
这些年来	-17089
这是因为	-17090
这样才能	-17091
这种方式	-17092
这种现象	-17093
这种结构	-17094
这部电影	-17095
进口剧集	-17096
进行治疗	-17097
远程教育	-17098
迪雅里克	-17099
通过探索	-17100
造型美观	-17101
造型艺术	-17102
都是可以	-17103
酸甜可口	-17104
采暖系统	-17105
重大意义	-17106
重点关注	-17107
重点检查	-17108
重要因素	-17109
金立群说	-17110
金色阳光	-17111
金融中心	-17112
鉴定报告	-17113
钢材库存	-17114
钢铁行业	-17115
销售市场	-17116
销售煤炭	-17117
长期以来	-17118
长期来看	-17119
长期经营	-17120
防疫工作	-17121
防范化解	-17122
阿弥陀佛	-17123
随机团队	-17124
随着中国	-17125
雄关漫道	-17126
集团公司	-17127
需要哪些	-17128
需要如何	-17129
需要掌握	-17130
青少年的	-17131
青年教师	-17132
非侵入性	-17133
非常重要	-17134
革命烈士	-17135
音乐学院	-17136
项目立项	-17137
项目管理	-17138
领先地位	-17139
领导干部	-17140
香港市民	-17141
香港电影	-17142
香港社会	-17143
马来西亚	-17144
驻寺湾镇	-17145
高等学校	-17146
高级教师	-17147
魔兽世界	-17148
鱼的时候	-17149
,1629	-17150
,2007	-17151
,2009	-17152
,2021	-17153
03-11	-17154
08:30	-17155
10061	-17156
:2016	-17157
Apple	-17158
Shadw	-17159
Super	-17160
Volks	-17161
Willi	-17162
amily	-17163
athon	-17164
ogger	-17165
▁0313	-17166
▁2000	-17167
▁2004	-17168
▁Bond	-17169
▁Code	-17170
▁Comp	-17171
▁Lite	-17172
▁Lund	-17173
▁Tips	-17174
▁一段时间	-17175
▁中国十大	-17176
▁以上就是	-17177
▁众所周知	-17178
▁候选城市	-17179
▁关于印发	-17180
▁学前教育	-17181
▁山东泰安	-17182
▁数据显示	-17183
▁早日康复	-17184
▁昨天晚上	-17185
▁氮氧化物	-17186
▁温馨提示	-17187
▁节日快乐	-17188
▁通过以上	-17189
▁除此之外	-17190
▁随着社会	-17191
。2001	-17192
。2012	-17193
一定的了解	-17194
一直保持着	-17195
万台变频器	-17196
三月十四日	-17197
下面我们就	-17198
不同类型的	-17199
不错的选择	-17200
专业的团队	-17201
严谨的标准	-17202
个人工作室	-17203
中国游客在	-17204
中国证监会	-17205
中国青少年	-17206
中祥新材料	-17207
中长期合同	-17208
为公司带来	-17209
为静乐公主	-17210
主体责任表	-17211
主要负责人	-17212
也没有什么	-17213
了一份尊严	-17214
二零一四年	-17215
产业发展的	-17216
人类最大的	-17217
什么拯救你	-17218
令大选前景	-17219
企业网站的	-17220
伦敦金融城	-17221
体育节目员	-17222
依照国际上	-17223
俄罗斯文学	-17224
保持良好的	-17225
信息化建设	-17226
修理和维护	-17227
儿童乐园的	-17228
公司董事长	-17229
关注的热点	-17230
制作迎春花	-17231
劳动者人数	-17232
募集金额为	-17233
匆匆那一年	-17234
医疗中心的	-17235
华盛顿邮报	-17236
博士研究生	-17237
卫星转发器	-17238
参加舞蹈训	-17239
及支付现金	-17240
双重国籍的	-17241
发动机进水	-17242
发展的重要	-17243
发生的原因	-17244
呈上升趋势	-17245
和挫折等待	-17246
唐氏症筛检	-17247
商业电影和	-17248
国家能源局	-17249
在社交媒体	-17250
地夺走青春	-17251
坏字符规则	-17252
坚持以顾客	-17253
多亿平方米	-17254
大学生就业	-17255
大屯北路至	-17256
好后缀规则	-17257
威尔史密斯	-17258
官方网宣布	-17259
室内热环境	-17260
对企业运营	-17261
对设备进行	-17262
将来艺术家	-17263
小丑嘉年华	-17264
工作进行了	-17265
市场竞争力	-17266
带来更多的	-17267
年普通中考	-17268
并不意味着	-17269
幼儿园课程	-17270
广州等城市	-17271
广泛的应用	-17272
广阔的发展	-17273
库蒂尼奥的	-17274
应该要注意	-17275
建成通车后	-17276
很多人都在	-17277
很大的影响	-17278
很容易导致	-17279
必不可少的	-17280
总股本比例	-17281
惠更斯简述	-17282
意大利维哥	-17283
我们的投资	-17284
我们的生活	-17285
我国微生物	-17286
抗风险能力	-17287
拍摄的剧集	-17288
持公司股份	-17289
政府和社会	-17290
是一种新型	-17291
普罗米修斯	-17292
最大的中文	-17293
最终一期中	-17294
有什么区别	-17295
有非常多的	-17296
本次交易中	-17297
李宁田径场	-17298
来华留学生	-17299
染色体异常	-17300
校长候选人	-17301
比上年增加	-17302
治疗白癜风	-17303
法国当代最	-17304
洛杉矶时报	-17305
济南大北环	-17306
湖北省宣恩	-17307
湖泊与环境	-17308
激光电视机	-17309
火锅的味道	-17310
烤漆设备的	-17311
爱心早餐点	-17312
物理研究所	-17313
现行排污费	-17314
生源所在省	-17315
用实际行动	-17316
电磁继电器	-17317
留学生们的	-17318
的不确定性	-17319
的专业人才	-17320
的合作关系	-17321
的游戏则是	-17322
的研究报告	-17323
的美术绘画	-17324
的高新技术	-17325
皮肤病医院	-17326
真理的力量	-17327
眼视光中心	-17328
知识和技能	-17329
科创板上市	-17330
移动互联网	-17331
竹制品产业	-17332
等小幅回调	-17333
等涨幅居前	-17334
管理委员会	-17335
精美的产品	-17336
红十字国际	-17337
美克美家的	-17338
美联储可能	-17339
自己的力量	-17340
自己的身体	-17341
自然的理解	-17342
良好的口碑	-17343
节约能源法	-17344
荆优游体育	-17345
莱佛士爵士	-17346
董事长兜底	-17347
行业发展的	-17348
装饰材料的	-17349
规模最大的	-17350
视网膜病变	-17351
证券研究所	-17352
详细听取了	-17353
调度和编排	-17354
赞扬林志玲	-17355
跨地区电煤	-17356
这两场比赛	-17357
连衣裙漫画	-17358
重要的事情	-17359
钢筋焊接网	-17360
门窗的能耗	-17361
阿普和母亲	-17362
陈旭源一行	-17363
隶属奉天省	-17364
音步抑扬格	-17365
颠覆性技术	-17366
马拉松比赛	-17367
高风险地区	-17368
14.2%。	-17369
:2015-	-17370
Baraka	-17371
Docker	-17372
Oxford	-17373
ersity	-17374
▁Apple	-17375
▁Goldf	-17376
▁Manag	-17377
▁Swarm	-17378
▁Watch	-17379
▁宁波从全国	-17380
▁白癜风患者	-17381
▁防弹少年团	-17382
万金石马拉松	-17383
下面就给大家	-17384
不会自由选择	-17385
专业技术人员	-17386
个人亲子鉴定	-17387
中国北京时间	-17388
中等职业学校	-17389
予州化工企业	-17390
互联网普及率	-17391
以质量求生存	-17392
但却给人生的	-17393
佣金席位占比	-17394
党风廉政建设	-17395
全市规模以上	-17396
全面二孩政策	-17397
公司已经开始	-17398
公开征求意见	-17399
冰灯冰雕艺术	-17400
创新设计大赛	-17401
判标准和城市	-17402
北方采暖地区	-17403
发展的过程中	-17404
发生化学反应	-17405
可持续发展的	-17406
商业借贷计划	-17407
国民经济发展	-17408
国际教育学院	-17409
地域保护措施	-17410
多个中心城市	-17411
多功能智能杆	-17412
威廉莎士比亚	-17413
安徽省六安市	-17414
对未成年人的	-17415
寺金刚宝座塔	-17416
少数民族大众	-17417
工程技术人员	-17418
已广泛应用于	-17419
广东省广州市	-17420
开元二十五年	-17421
成的被调查者	-17422
成都明日之星	-17423
摆线针齿啮合	-17424
是使人类相信	-17425
有一个不合格	-17426
服务实体经济	-17427
本届艺术节上	-17428
来自全国各地	-17429
柔性橡胶接头	-17430
比上月同期涨	-17431
水载型防腐剂	-17432
江阴市博物馆	-17433
济州总领事馆	-17434
火力发电企业	-17435
物业服务企业	-17436
物联网的未来	-17437
疾病预防控制	-17438
的成功都不能	-17439
的所有元素的	-17440
的资料抛转成	-17441
相关工作经验	-17442
省级政协委员	-17443
硕士毕业人数	-17444
礼物是什么呢	-17445
等方面的基本	-17446
经济社会发展	-17447
给未来艺术家	-17448
能源行业信用	-17449
自清洗过滤器	-17450
艺术启蒙运动	-17451
艺术文化教育	-17452
获得文华大奖	-17453
行星传动原理	-17454
负面清单管理	-17455
车辆和人员外	-17456
辽宁省沈阳市	-17457
这是任何顺利	-17458
金属缠绕垫片	-17459
降低生产成本	-17460
集中充电车棚	-17461
集团有限公司	-17462
项目管理人员	-17463
食品有限公司	-17464
食品行业协会	-17465
高质量发展的	-17466
黑色素细胞自	-17467
:710061	-17468
GearBox	-17469
JanKoum	-17470
Keyeast	-17471
William	-17472
ational	-17473
ermaine	-17474
▁121102	-17475
▁docker	-17476
▁iPhone	-17477
▁天鹰起重机械	-17478
▁恒大集团旗下	-17479
上海自贸区经验	-17480
中国工程院院士	-17481
产业格局的变化	-17482
产品广泛应用于	-17483
会有植物性皮炎	-17484
使用税控收款机	-17485
党风廉政监督员	-17486
出入境管理部门	-17487
创新素养的培育	-17488
北京摄影家协会	-17489
危化品安全生产	-17490
参加舞蹈训炼的	-17491
国家公园的概念	-17492
大学生创新创业	-17493
大屯路地下隧道	-17494
学生的创新能力	-17495
就业前景怎么样	-17496
已完成澳大利亚	-17497
我们是真为朋友	-17498
整个互联网广告	-17499
有普通版和限定	-17500
浙江省革命烈士	-17501
深圳段全线覆盖	-17502
理解生态系统的	-17503
生产厂家生产的	-17504
白癜风医院专家	-17505
禁止其他车辆和	-17506
自己拍摄的剧集	-17507
行业管理部门和	-17508
被誉为智慧高速	-17509
陕西省肿瘤医院	-17510
静乐公主独孤氏	-17511
Shadwell	-17512
Shoppers	-17513
arehouse	-17514
————————	-17515
一次次地夺走青春	-17516
上一次出现位置为	-17517
中国企业体育协会	-17518
产品类别渗透率为	-17519
令大选前景复杂化	-17520
体育节目员的工作	-17521
信成公主与独孤明	-17522
华北水利水电大学	-17523
占公司总股本比例	-17524
和挫折等待着人们	-17525
四大卫星导航系统	-17526
国民经济发展缓慢	-17527
国药集团中国生物	-17528
大学哲学学院教授	-17529
室内热环境质量和	-17530
室内环境保护产业	-17531
康普顿曾经提到过	-17532
影响期货交易价格	-17533
意大利维哥火车站	-17534
指数证券投资基金	-17535
新建住宅竣工面积	-17536
方面的知识和技能	-17537
期货交易管理条例	-17538
格莱美颁奖典礼上	-17539
的银行家认为当前	-17540
糖尿病视网膜病变	-17541
股东大会审议通过	-17542
西校园李宁田径场	-17543
驻寺湾镇柳林沟村	-17544
高校冰灯冰雕艺术	-17545
高频感应加热线圈	-17546
asterCard	-17547
▁Marathon	-17548
▁Research	-17549
▁新北市金山区忠孝	-17550
▁氮氧化物在线监测	-17551
依照国际上公认的评	-17552
全球仅次青花瓷建筑	-17553
前景增添了一份尊严	-17554
区块链的分布式账本	-17555
和上期相比本期排名	-17556
复合聚四氟乙烯垫片	-17557
广州等城市一起成为	-17558
政府和社会资本合作	-17559
新冠肺炎疫情发生后	-17560
法国当代最受欢迎的	-17561
湖泊与环境变化团队	-17562
的成功都不能做到的	-17563
科学赐于人类最大的	-17564
胎儿染色体基因检测	-17565
胎儿染色体是否异常	-17566
贫煤地区火力发电厂	-17567
陕西省西安市雁塔区	-17568
University	-17569
▁新北市金山区和平里	-17570
判标准和城市评价体系	-17571
的基本理论和基本知识	-17572
给未来艺术家一个期待	-17573
销售地条钢等违法行为	-17574
:2015-03-11	-17575
▁Goldfinger	-17576
▁Management	-17577
一次次地夺走青春的容颜	-17578
中祥新材料股份有限公司	-17579
多个中心城市中脱颖而出	-17580
山西省财政税务专科学校	-17581
徐熙娣首讲与林志玲相左	-17582
是使人类相信真理的力量	-17583
禁止其他车辆和行人通行	-17584
▁中国十大最具幸福感城市	-17585
危险化学品安全生产工作的	-17586
大屯北路至国家体育场北路	-17587
安装不锈钢扩口式管接头时	-17588
尽管失败和挫折等待着人们	-17589
已完成澳大利亚办公楼项目	-17590
的银行家认为当前宏观经济	-17591
▁济宁臭氧机生产厂家生产的	-17592
全市少数民族传统体育运动会	-17593
创业投资暨私募股权投资机构	-17594
非侵入性胎儿染色体基因检测	-17595
南阳市体育局驻寺湾镇柳林沟村	-17596
广西民族大学西校园李宁田径场	-17597
桂林市少数民族传统体育运动会	-17598
高校冰灯冰雕艺术创新设计大赛	-17599
▁北卡罗莱纳大学格林斯波洛分校	-17600
但却给人生的前景增添了一份尊严	-17601
科学赐于人类最大的礼物是什么呢	-17602
这是任何顺利的成功都不能做到的	-17603
▁首届中国最具幸福感城市推选活动	-17604
全面加强危险化学品安全生产工作的	-17605
的首届中国最具幸福感城市推选活动	-17606
除持有演出专用证件的车辆和人员外	-17607
%(	-17608
%～	-17609
(3	-17610
+2	-17611
+”	-17612
,(	-17613
,,	-17614
-7	-17615
.(	-17616
.;	-17617
0,	-17618
1。	-17619
2]	-17620
3:	-17621
3]	-17622
3。	-17623
4》	-17624
6~	-17625
6、	-17626
7+	-17627
74	-17628
8)	-17629
8、	-17630
9》	-17631
:9	-17632
;2	-17633
==	-17634
Al	-17635
An	-17636
Ap	-17637
BY	-17638
CH	-17639
CI	-17640
CW	-17641
EA	-17642
EO	-17643
FI	-17644
FO	-17645
Fl	-17646
GL	-17647
GN	-17648
HS	-17649
HT	-17650
IB	-17651
JM	-17652
LA	-17653
ME	-17654
NT	-17655
OP	-17656
PG	-17657
PK	-17658
PM	-17659
PU	-17660
Ph	-17661
QQ	-17662
Su	-17663
TC	-17664
TF	-17665
Th	-17666
VR	-17667
aS	-17668
ah	-17669
aw	-17670
az	-17671
co	-17672
df	-17673
dv	-17674
ek	-17675
ge	-17676
hu	-17677
ib	-17678
ix	-17679
je	-17680
mg	-17681
ms	-17682
nl	-17683
sl	-17684
sp	-17685
ue	-17686
uk	-17687
ve	-17688
yt	-17689
—5	-17690
“(	-17691
”?	-17692
▁_	-17693
▁e	-17694
▁▲	-17695
▁】	-17696
▁〔	-17697
▁丘	-17698
▁丰	-17699
▁乞	-17700
▁乡	-17701
▁争	-17702
▁付	-17703
▁伸	-17704
▁侧	-17705
▁修	-17706
▁健	-17707
▁克	-17708
▁兵	-17709
▁凭	-17710
▁划	-17711
▁剁	-17712
▁力	-17713
▁勒	-17714
▁匀	-17715
▁升	-17716
▁卧	-17717
▁卸	-17718
▁叼	-17719
▁咔	-17720
▁咬	-17721
▁响	-17722
▁唠	-17723
▁啵	-17724
▁喵	-17725
▁噶	-17726
▁噻	-17727
▁嚣	-17728
▁坎	-17729
▁块	-17730
▁坦	-17731
▁埃	-17732
▁塞	-17733
▁壮	-17734
▁声	-17735
▁壳	-17736
▁备	-17737
▁夕	-17738
▁妳	-17739
▁姜	-17740
▁姥	-17741
▁娇	-17742
▁孤	-17743
▁室	-17744
▁寒	-17745
▁尖	-17746
▁层	-17747
▁届	-17748
▁峰	-17749
▁川	-17750
▁左	-17751
▁巴	-17752
▁布	-17753
▁希	-17754
▁常	-17755
▁庆	-17756
▁怂	-17757
▁恍	-17758
▁恼	-17759
▁患	-17760
▁意	-17761
▁憋	-17762
▁户	-17763
▁扛	-17764
▁扣	-17765
▁披	-17766
▁拎	-17767
▁拟	-17768
▁拱	-17769
▁挂	-17770
▁捞	-17771
▁捶	-17772
▁掌	-17773
▁握	-17774
▁搓	-17775
▁搭	-17776
▁摄	-17777
▁摇	-17778
▁播	-17779
▁旧	-17780
▁旺	-17781
▁显	-17782
▁曹	-17783
▁曼	-17784
▁替	-17785
▁望	-17786
▁杂	-17787
▁杜	-17788
▁板	-17789
▁柔	-17790
▁样	-17791
▁桂	-17792
▁梁	-17793
▁樱	-17794
▁欧	-17795
▁款	-17796
▁歪	-17797
▁毁	-17798
▁母	-17799
▁汕	-17800
▁泰	-17801
▁洞	-17802
▁浮	-17803
▁涂	-17804
▁涨	-17805
▁淑	-17806
▁淮	-17807
▁游	-17808
▁湖	-17809
▁源	-17810
▁滤	-17811
▁灏	-17812
▁烫	-17813
▁煮	-17814
▁熟	-17815
▁爪	-17816
▁爷	-17817
▁狼	-17818
▁猛	-17819
▁玉	-17820
▁瑞	-17821
▁瓜	-17822
▁甩	-17823
▁症	-17824
▁瘾	-17825
▁盘	-17826
▁瞄	-17827
▁瞅	-17828
▁砍	-17829
▁票	-17830
▁禁	-17831
▁私	-17832
▁秃	-17833
▁科	-17834
▁秒	-17835
▁稍	-17836
▁稳	-17837
▁窝	-17838
▁笔	-17839
▁粉	-17840
▁综	-17841
▁缓	-17842
▁缝	-17843
▁耗	-17844
▁联	-17845
▁脖	-17846
▁舔	-17847
▁色	-17848
▁董	-17849
▁薄	-17850
▁薛	-17851
▁虹	-17852
▁蛇	-17853
▁血	-17854
▁袜	-17855
▁裁	-17856
▁视	-17857
▁讨	-17858
▁访	-17859
▁诚	-17860
▁豪	-17861
▁货	-17862
▁贴	-17863
▁费	-17864
▁赛	-17865
▁赤	-17866
▁踩	-17867
▁蹲	-17868
▁躲	-17869
▁达	-17870
▁运	-17871
▁迫	-17872
▁逆	-17873
▁速	-17874
▁醋	-17875
▁铭	-17876
▁银	-17877
▁锦	-17878
▁键	-17879
▁间	-17880
▁雅	-17881
▁震	-17882
▁露	-17883
▁顶	-17884
▁馅	-17885
▁骨	-17886
▁齐	-17887
、7	-17888
。-	-17889
。8	-17890
。【	-17891
〇〇	-17892
一一	-17893
一书	-17894
一人	-17895
一侧	-17896
一共	-17897
一卷	-17898
一地	-17899
一块	-17900
一堂	-17901
一声	-17902
一头	-17903
一字	-17904
一届	-17905
一月	-17906
一来	-17907
一架	-17908
一档	-17909
一番	-17910
一盘	-17911
一群	-17912
一股	-17913
一要	-17914
一蹴	-17915
一键	-17916
七品	-17917
七成	-17918
万亿	-17919
万公	-17920
万册	-17921
万家	-17922
万平	-17923
三元	-17924
三华	-17925
三四	-17926
三省	-17927
三类	-17928
三羧	-17929
上中	-17930
上冷	-17931
上千	-17932
上台	-17933
上周	-17934
上图	-17935
上放	-17936
上等	-17937
上船	-17938
上角	-17939
上限	-17940
下旬	-17941
下班	-17942
下角	-17943
下限	-17944
不乱	-17945
不二	-17946
不停	-17947
不像	-17948
不分	-17949
不单	-17950
不合	-17951
不堪	-17952
[...]
